[PAD]
[CLS]
[SEP]
[UNK]
[MASK]
	


 
!
"
#
$
%
&
'
(
)
*
+
,
-
.
/
0
1
2
3
4
5
6
7
8
9
:
;
<
=
>
?
@
A
B
C
D
E
F
G
H
I
J
K
L
M
N
O
P
Q
R
S
T
U
V
W
X
Y
Z
[
\
]
^
_
`
a
b
c
d
e
f
g
h
i
j
k
l
m
n
o
p
q
r
s
t
u
v
w
x
y
z
{
|
}
~













¡
¢
£
¤
¥
¦
§
¨
©
ª
«
¬
®
¯
°
±
²
³
´
µ
¶
·
¸
¹
º
»
¼
½
¾
¿
À
Á
Â
Ã
Ä
Å
Æ
Ç
È
É
Ê
Ë
Ì
Í
Î
Ï
Ð
Ñ
Ò
Ó
Ô
Õ
Ö
×
Ø
Ù
Ú
Û
Ü
Ý
Þ
ß
à
á
â
ã
ä
å
æ
ç
è
é
ê
ë
ì
í
î
ï
ð
ñ
ò
ó
ô
õ
ö
÷
ø
ù
ú
û
ü
ý
þ
ÿ
Ā
ā
Ă
ă
Ą
ą
Ć
ć
ĉ
Č
č
ď
Đ
đ
Ē
ē
ĕ
ė
ę
Ě
ě
ĝ
Ğ
ğ
Ġ
ġ
Ĥ
ħ
Ĩ
ĩ
Ī
ī
ĭ
İ
ı
ĺ
ļ
Ľ
ľ
Ł
ł
ń
ņ
ň
ŋ
Ō
ō
ŏ
Ő
ő
Œ
œ
Ŕ
ŕ
Ř
ř
Ś
ś
Ŝ
ŝ
Ş
ş
Š
š
ţ
ť
ũ
ū
ŭ
ů
ű
ų
ŵ
Ŷ
ŷ
Ÿ
ź
Ż
ż
Ž
ž
ſ
Ɖ
Ƌ
ƌ
Ɛ
ƒ
ƚ
ơ
ư
Ƶ
ǀ
ǎ
ǐ
ǒ
ǔ
ǝ
Ǧ
ǧ
ǫ
ǵ
Ș
ș
Ț
ț
ȝ
ɐ
ɑ
ɓ
ɔ
ɕ
ə
ɛ
ɡ
ɣ
ɦ
ɨ
ɪ
ɯ
ɲ
ɹ
ɾ
ʀ
ʁ
ʂ
ʃ
ʊ
ʌ
ʒ
ʔ
ʰ
ʲ
ʳ
ʷ
ʹ
ʺ
ʻ
ʼ
ʾ
ʿ
ˁ
ˆ
ˇ
ˈ
ˉ
ː
˘
˙
˚
˜
˝
ˮ
̀
́
̂
̃
̄
̅
̇
̈
̣
̧
̩
̯
̲
̶
̸
͏
͕
͘
͛
͡
Ͳ
Α
Β
Γ
Δ
Ε
Ζ
Η
Θ
Ι
Κ
Λ
Μ
Ν
Ξ
Ο
Π
Ρ
Σ
Τ
Υ
Φ
Χ
Ψ
Ω
Ϊ
Ϋ
ά
έ
ή
ί
ΰ
α
β
γ
δ
ε
ζ
η
θ
ι
κ
λ
μ
ν
ξ
ο
π
ρ
ς
σ
τ
υ
φ
χ
ψ
ω
ό
ύ
ώ
ϐ
ϑ
ϕ
Ϟ
ϟ
Ϭ
ϭ
Ϯ
ϯ
ϰ
ϱ
ϵ
Ё
Ђ
Є
Ѕ
І
А
Б
В
Г
Д
Е
Ж
З
И
Й
К
Л
М
Н
О
П
Р
С
Т
У
Ф
Х
Ц
Ч
Ш
Э
Ю
Я
а
б
в
г
д
е
ж
з
и
й
к
л
м
н
о
п
р
с
т
у
ф
х
ц
ч
ш
щ
ъ
ы
ь
э
ю
я
ё
ђ
є
ѕ
і
ї
ј
њ
ћ
Ҩ
ү
ә
ՙ
ա
ե
ի
կ
մ
յ
ն
ո
ս
տ
ր
ւ
֖
֣
֥
ְ
ֲ
ֳ
ִ
ֵ
ֶ
ַ
ָ
ֹ
ּ
ֽ
־
ׁ
ׂ
א
ב
ג
ד
ה
ו
ז
ח
ט
י
ך
כ
ל
ם
מ
ן
נ
ס
ע
פ
צ
ק
ר
ש
ת
،
؟
ء
آ
أ
ؤ
إ
ئ
ا
ب
ة
ت
ث
ج
ح
خ
د
ذ
ر
ز
س
ش
ص
ض
ط
ظ
ع
غ
ـ
ف
ق
ك
ل
م
ن
ه
و
ى
ي
ً
ٌ
ٍ
َ
ُ
ِ
ّ
ْ
ٰ
ٱ
پ
ک
گ
ی
ۡ
ं
क
ग
ज
त
द
न
प
ब
भ
म
य
र
ल
व
श
स
ह
ा
ि
ी
ु
े
ो
्
ন
ব
র
ল
া
ি
্
த
ம
ி
்
ก
ข
ค
ง
จ
ช
ญ
ณ
ด
ต
ถ
ท
ธ
น
บ
ป
ผ
ฝ
พ
ภ
ม
ย
ร
ล
ว
ศ
ษ
ส
ห
อ
ะ
ั
า
ำ
ิ
ี
ื
ุ
ู
เ
แ
โ
ใ
ไ
็
่
้
์
་
ာ
်
ა
ბ
დ
ე
ვ
თ
ი
ლ
მ
ნ
ო
რ
ს
უ
ღ
፡
ᐅ
ក
ន
ប
ម
រ
ស
ា
្
ᴰ
ᴹ
ᵉ
ḍ
ḏ
Ḥ
ḥ
Ḫ
ḫ
ḳ
ḿ
ṁ
ṃ
ṅ
ṇ
ṕ
ṛ
Ṣ
ṣ
Ṭ
ṭ
ṯ
ẋ
ẓ
ạ
ả
ấ
ầ
ậ
ắ
ẽ
ế
ề
ể
ễ
ệ
ị
ọ
ố
ồ
ổ
ộ
ớ
ờ
ở
ợ
ụ
ủ
ứ
ử
ữ
ự
ỹ
ἀ
ἄ
Ἀ
ἐ
ἑ
ἔ
ἡ
ἰ
ἱ
ἴ
ἶ
ἷ
Ἰ
ὀ
ὁ
ὄ
ὅ
ὐ
ὑ
ὕ
ὡ
ὰ
ὲ
ὴ
ὶ
ὸ
ὺ
ᾶ
᾽
ῃ
ῆ
ῇ
ῖ
ῦ
ῳ
ῶ
ῷ
‐
‑
‒
–
—
―
‖
‘
’
‚
“
”
„
‟
†
‡
•
‣
…
‧
‰
′
″
‹
›
※
‼
‿
⁃
⁄
⁉
⁰
₂
₪
€
₽
⃗
⃣
ℂ
℃
ℎ
ℓ
№
ℚ
ℝ
™
ℤ
℮
ℹ
⅓
←
↑
→
↓
↔
↕
↖
↗
↘
↙
↠
↩
↪
↳
↵
⇐
⇑
⇒
⇔
⇢
⇤
⇥
⇨
∀
∂
∃
∅
∆
∇
∈
∏
∑
−
∗
∙
√
∝
∞
∟
∥
∧
∨
∩
∪
∫
∴
∼
≃
≈
≠
≡
≤
≥
≪
≫
⊂
⊆
⊕
⊗
⊤
⊥
⊱
⊹
⋅
⋆
⋙
⌘
⌚
⌛
⌨
⎜
⎪
⎯
⏏
⏩
⏪
⏫
⏬
⏭
⏮
⏯
⏰
⏱
⏲
⏳
⏸
⏹
⏺
␣
①
②
③
Ⓜ
─
━
│
└
├
═
║
▀
▄
█
░
▓
■
□
▢
▪
▫
▬
▲
△
▴
▶
▷
▸
►
▻
▼
▽
◀
◄
◆
◇
◈
◉
◊
○
●
◕
◗
◘
◦
◻
◼
◽
◾
☀
☁
☂
☃
☄
★
☆
☎
☐
☑
☔
☕
☘
☛
☝
☞
☠
☢
☣
☦
☪
☮
☯
☰
☸
☹
☺
☻
☼
☾
♀
♂
♈
♉
♊
♋
♌
♍
♎
♏
♐
♑
♒
♓
♔
♕
♙
♛
♟
♠
♡
♢
♣
♥
♦
♨
♪
♫
♬
♭
♯
♻
♾
♿
⚒
⚓
⚔
⚕
⚖
⚗
⚙
⚛
⚜
⚠
⚡
⚧
⚪
⚫
⚰
⚱
⚽
⚾
⛄
⛅
⛈
⛎
⛏
⛑
⛓
⛔
⛩
⛪
⛰
⛱
⛲
⛳
⛴
⛵
⛷
⛸
⛹
⛺
⛽
✂
✅
✇
✈
✉
✊
✋
✌
✍
✎
✏
✐
✒
✓
✔
✕
✖
✗
✘
✛
✜
✝
✡
✤
✦
✧
✨
✩
✪
✬
✭
✮
✰
✱
✲
✳
✴
✵
✶
✷
✸
✹
✺
✻
✼
✽
✾
✿
❀
❄
❆
❇
❈
❉
❊
❋
❌
❍
❎
❏
❑
❓
❔
❕
❖
❗
❙
❚
❛
❜
❝
❞
❡
❢
❣
❤
❥
❦
❧
❬
❯
➔
➕
➖
➗
➙
➜
➡
➢
➣
➤
➰
➳
➽
➿
⟨
⟩
⟶
⠀
⤴
⤵
⦁
⬅
⬆
⬇
⬛
⬜
⭐
⭕
ⴰ
ⵉ
ⵍ
ⵎ
ⵏ
ⵓ
ⵔ
ⵜ
⸱
、
。
〈
〉
《
》
「
」
『
』
【
】
〜
〰
〽
あ
い
う
え
お
か
が
き
く
け
こ
ご
さ
し
じ
す
せ
そ
た
だ
ち
っ
つ
て
で
と
ど
な
に
の
は
ば
ひ
へ
ま
み
め
も
ゃ
や
よ
ら
り
る
れ
ろ
わ
を
ん
ァ
ア
ィ
イ
ウ
ェ
エ
オ
カ
ガ
キ
ク
グ
ケ
コ
ゴ
サ
ザ
シ
ジ
ス
ズ
セ
ソ
タ
ダ
チ
ッ
ツ
テ
デ
ト
ド
ナ
ニ
ネ
ノ
ハ
バ
パ
ビ
ピ
フ
ブ
プ
ベ
ペ
ホ
ボ
ポ
マ
ミ
ム
メ
モ
ャ
ュ
ョ
ラ
リ
ル
レ
ロ
ワ
ン
ヴ
・
ー
㊗
㊙
一
七
三
上
下
不
与
世
业
东
个
中
为
主
么
之
乐
九
也
书
了
事
二
于
五
井
交
京
人
今
他
代
以
们
件
价
伊
会
位
住
体
何
作
你
使
保
信
元
先
光
克
入
全
八
公
六
共
关
其
内
出
分
切
利
到
制
前
力
加
动
動
化
北
区
十
千
华
南
博
原
去
县
及
友
发
取
口
古
可
台
史
号
司
合
吉
同
名
后
向
周
和
品
商
四
回
国
國
園
土
在
地
型
城
基
堂
場
士
夏
外
多
夜
大
天
太
夫
套
女
好
如
子
字
存
学
學
安
宗
定
实
客
室
宮
家
宿
寓
对
寺
小
少
尔
就
屋
山
島
川
州
工
巴
市
布
帝
常
平
年
店
度
建
开
式
张
張
当
形
影
很
後
得
御
德
心
志
思
性
情
想
意
愛
感
成
我
戦
房
所
手
拉
提
放
政
教
数
整
文
料
斯
新
方
旅
族
无
日
时
明
星
春
是
時
景
更
書
最
月
有
朝
期
木
本
机
李
村
条
来
東
松
林
果
校
格
楽
次
歌
正
武
比
民
気
水
永
江
没
河
治
法
洞
活
流
海
清
港
源
灣
火
点
無
然
版
物
特
玉
王
现
理
生
用
田
由
电
男
町
画
界
白
百
的
皇
目
相
看
真
着
知
石
研
社
神
福
私
科
租
究
空
立
站
竹
第
等
简
类
系
繁
经
网
置
美
義
老
者
而
育
能
自
良
色
花
英
茅
茶
草
華
藤
行
術
街
表
西
要
見
解
言
記
語
语
说
谷
起
超
路
身
軍
车
过
近
这
通
道
那
郎
部
都
酒
里
重
野
金
長
长
門
間
间
阳
阿
院
陽
集
青
非
面
音
風
食
館
香
馬
马
體
高
龍
가
고
구
국
그
기
김
나
눇
눉
는
니
다
대
도
동
드
라
로
리
마
문
민
보
사
산
상
서
선
성
소
수
스
시
신
아
어
에
역
영
오
요
우
원
은
을
의
이
인
일
자
장
전
정
제
조
주
지
트
하
한
해
화
ﬁ
ﬂ
ﷺ
︎
ﺎ
ﺔ
ﻟ
！
（
）
，
：
～
￼
�
𝐀
𝐂
𝐄
𝐈
𝐋
𝐍
𝐎
𝐑
𝐒
𝐓
𝐚
𝐜
𝐝
𝐞
𝐢
𝐥
𝐦
𝐧
𝐨
𝐩
𝐫
𝐬
𝐭
𝐮
𝐴
𝐵
𝐶
𝐷
𝐸
𝐹
𝐺
𝐻
𝐼
𝐽
𝐾
𝐿
𝑀
𝑁
𝑂
𝑃
𝑄
𝑅
𝑆
𝑇
𝑈
𝑉
𝑊
𝑋
𝑌
𝑍
𝑎
𝑏
𝑐
𝑑
𝑒
𝑓
𝑔
𝑖
𝑗
𝑘
𝑙
𝑚
𝑛
𝑜
𝑝
𝑞
𝑟
𝑠
𝑡
𝑢
𝑣
𝑤
𝑥
𝑦
𝑧
𝑪
𝒂
𝒄
𝒅
𝒆
𝒊
𝒍
𝒎
𝒏
𝒐
𝒑
𝒓
𝒔
𝒕
𝒖
𝒙
𝗔
𝗘
𝗜
𝗡
𝗥
𝗦
𝗧
𝗮
𝗰
𝗱
𝗲
𝗶
𝗹
𝗺
𝗻
𝗼
𝗿
𝘀
𝘁
𝘂
𝘦
𝙚
𝛥
𝛼
𝛽
𝛾
𝛿
𝜀
𝜂
𝜃
𝜆
𝜇
𝜈
𝜉
𝜋
𝜌
𝜎
𝜏
𝜑
𝜒
𝜓
𝜔
𝜕
𝜖
𝜙
🀄
🃏
🅰
🅱
🅾
🅿
🆎
🆑
🆒
🆓
🆔
🆕
🆖
🆗
🆘
🆙
🆚
🇦
🇧
🇨
🇩
🇪
🇫
🇬
🇭
🇮
🇯
🇰
🇱
🇲
🇳
🇴
🇵
🇶
🇷
🇸
🇹
🇺
🇻
🇼
🇽
🇾
🇿
🈁
🈂
🈚
🈯
🈲
🈳
🈴
🈵
🈶
🈷
🈸
🈹
🈺
🉐
🉑
🌀
🌁
🌂
🌃
🌄
🌅
🌆
🌇
🌈
🌉
🌊
🌋
🌌
🌍
🌎
🌏
🌐
🌑
🌒
🌓
🌔
🌕
🌖
🌗
🌘
🌙
🌚
🌛
🌜
🌝
🌞
🌟
🌠
🌡
🌤
🌥
🌦
🌧
🌨
🌩
🌪
🌫
🌬
🌭
🌮
🌯
🌰
🌱
🌲
🌳
🌴
🌵
🌶
🌷
🌸
🌹
🌺
🌻
🌼
🌽
🌾
🌿
🍀
🍁
🍂
🍃
🍄
🍅
🍆
🍇
🍈
🍉
🍊
🍋
🍌
🍍
🍎
🍏
🍐
🍑
🍒
🍓
🍔
🍕
🍖
🍗
🍘
🍙
🍚
🍛
🍜
🍝
🍞
🍟
🍠
🍡
🍢
🍣
🍤
🍥
🍦
🍧
🍨
🍩
🍪
🍫
🍬
🍭
🍮
🍯
🍰
🍱
🍲
🍳
🍴
🍵
🍶
🍷
🍸
🍹
🍺
🍻
🍼
🍽
🍾
🍿
🎀
🎁
🎂
🎃
🎄
🎅
🎆
🎇
🎈
🎉
🎊
🎋
🎌
🎍
🎎
🎏
🎐
🎑
🎒
🎓
🎖
🎗
🎙
🎚
🎛
🎞
🎟
🎠
🎡
🎢
🎣
🎤
🎥
🎦
🎧
🎨
🎩
🎪
🎫
🎬
🎭
🎮
🎯
🎰
🎱
🎲
🎳
🎴
🎵
🎶
🎷
🎸
🎹
🎺
🎻
🎼
🎽
🎾
🎿
🏀
🏁
🏂
🏃
🏄
🏅
🏆
🏇
🏈
🏉
🏊
🏋
🏌
🏍
🏎
🏏
🏐
🏑
🏒
🏓
🏔
🏕
🏖
🏗
🏘
🏙
🏚
🏛
🏜
🏝
🏞
🏟
🏠
🏡
🏢
🏣
🏤
🏥
🏦
🏧
🏨
🏩
🏪
🏫
🏬
🏭
🏮
🏯
🏰
🏳
🏴
🏵
🏷
🏸
🏹
🏺
🏻
🏼
🏽
🏾
🏿
🐀
🐁
🐂
🐃
🐄
🐅
🐆
🐇
🐈
🐉
🐊
🐋
🐌
🐍
🐎
🐏
🐐
🐑
🐒
🐓
🐔
🐕
🐖
🐗
🐘
🐙
🐚
🐛
🐜
🐝
🐞
🐟
🐠
🐡
🐢
🐣
🐤
🐥
🐦
🐧
🐨
🐩
🐪
🐫
🐬
🐭
🐮
🐯
🐰
🐱
🐲
🐳
🐴
🐵
🐶
🐷
🐸
🐹
🐺
🐻
🐼
🐽
🐾
🐿
👀
👁
👂
👃
👄
👅
👆
👇
👈
👉
👊
👋
👌
👍
👎
👏
👐
👑
👒
👓
👔
👕
👖
👗
👘
👙
👚
👛
👜
👝
👞
👟
👠
👡
👢
👣
👤
👥
👦
👧
👨
👩
👪
👫
👬
👭
👮
👯
👰
👱
👲
👳
👴
👵
👶
👷
👸
👹
👺
👻
👼
👽
👾
👿
💀
💁
💂
💃
💄
💅
💆
💇
💈
💉
💊
💋
💌
💍
💎
💏
💐
💑
💒
💓
💔
💕
💖
💗
💘
💙
💚
💛
💜
💝
💞
💟
💠
💡
💢
💣
💤
💥
💦
💧
💨
💩
💪
💫
💬
💭
💮
💯
💰
💱
💲
💳
💴
💵
💶
💷
💸
💹
💺
💻
💼
💽
💾
💿
📀
📁
📂
📃
📄
📅
📆
📇
📈
📉
📊
📋
📌
📍
📎
📏
📐
📑
📒
📓
📔
📕
📖
📗
📘
📙
📚
📛
📜
📝
📞
📟
📠
📡
📢
📣
📤
📥
📦
📧
📨
📩
📪
📫
📬
📭
📮
📯
📰
📱
📲
📳
📴
📵
📶
📷
📸
📹
📺
📻
📼
📽
📿
🔀
🔁
🔂
🔃
🔄
🔅
🔆
🔇
🔈
🔉
🔊
🔋
🔌
🔍
🔎
🔏
🔐
🔑
🔒
🔓
🔔
🔕
🔖
🔗
🔘
🔙
🔚
🔛
🔜
🔝
🔞
🔟
🔠
🔡
🔢
🔣
🔤
🔥
🔦
🔧
🔨
🔩
🔪
🔫
🔬
🔭
🔮
🔯
🔰
🔱
🔲
🔳
🔴
🔵
🔶
🔷
🔸
🔹
🔺
🔻
🔼
🔽
🕉
🕊
🕋
🕌
🕍
🕎
🕐
🕑
🕒
🕓
🕔
🕕
🕖
🕗
🕘
🕙
🕚
🕛
🕜
🕝
🕞
🕟
🕠
🕡
🕢
🕣
🕤
🕥
🕦
🕧
🕯
🕰
🕳
🕴
🕵
🕶
🕷
🕸
🕹
🕺
🖇
🖊
🖋
🖌
🖍
🖐
🖕
🖖
🖤
🖥
🖨
🖱
🖲
🖼
🗂
🗃
🗄
🗑
🗒
🗓
🗜
🗝
🗞
🗡
🗣
🗨
🗯
🗳
🗺
🗻
🗼
🗽
🗾
🗿
😀
😁
😂
😃
😄
😅
😆
😇
😈
😉
😊
😋
😌
😍
😎
😏
😐
😑
😒
😓
😔
😕
😖
😗
😘
😙
😚
😛
😜
😝
😞
😟
😠
😡
😢
😣
😤
😥
😦
😧
😨
😩
😪
😫
😬
😭
😮
😯
😰
😱
😲
😳
😴
😵
😶
😷
😸
😹
😺
😻
😼
😽
😾
😿
🙀
🙁
🙂
🙃
🙄
🙅
🙆
🙇
🙈
🙉
🙊
🙋
🙌
🙍
🙎
🙏
🚀
🚁
🚂
🚃
🚄
🚅
🚆
🚇
🚈
🚉
🚊
🚋
🚌
🚍
🚎
🚏
🚐
🚑
🚒
🚓
🚔
🚕
🚖
🚗
🚘
🚙
🚚
🚛
🚜
🚝
🚞
🚟
🚠
🚡
🚢
🚣
🚤
🚥
🚦
🚧
🚨
🚩
🚪
🚫
🚬
🚭
🚮
🚯
🚰
🚱
🚲
🚳
🚴
🚵
🚶
🚷
🚸
🚹
🚺
🚻
🚼
🚽
🚾
🚿
🛀
🛁
🛂
🛃
🛄
🛅
🛋
🛌
🛍
🛎
🛏
🛐
🛑
🛒
🛕
🛖
🛗
🛝
🛞
🛟
🛠
🛡
🛢
🛣
🛤
🛥
🛩
🛫
🛬
🛰
🛳
🛴
🛵
🛶
🛷
🛸
🛹
🛺
🛻
🛼
🟠
🟡
🟢
🟣
🟤
🟥
🟦
🟧
🟨
🟩
🟪
🟫
🟰
🤌
🤍
🤎
🤏
🤐
🤑
🤒
🤓
🤔
🤕
🤖
🤗
🤘
🤙
🤚
🤛
🤜
🤝
🤞
🤟
🤠
🤡
🤢
🤣
🤤
🤥
🤦
🤧
🤨
🤩
🤪
🤫
🤬
🤭
🤮
🤯
🤰
🤱
🤲
🤳
🤴
🤵
🤶
🤷
🤸
🤹
🤺
🤼
🤽
🤾
🤿
🥀
🥁
🥂
🥃
🥄
🥅
🥇
🥈
🥉
🥊
🥋
🥌
🥍
🥎
🥏
🥐
🥑
🥒
🥓
🥔
🥕
🥖
🥗
🥘
🥙
🥚
🥛
🥜
🥝
🥞
🥟
🥠
🥡
🥢
🥣
🥤
🥥
🥦
🥧
🥨
🥩
🥪
🥫
🥬
🥭
🥮
🥯
🥰
🥱
🥲
🥳
🥴
🥵
🥶
🥷
🥸
🥹
🥺
🥻
🥼
🥽
🥾
🥿
🦀
🦁
🦂
🦃
🦄
🦅
🦆
🦇
🦈
🦉
🦊
🦋
🦌
🦍
🦎
🦏
🦐
🦑
🦒
🦓
🦔
🦕
🦖
🦗
🦘
🦙
🦚
🦛
🦜
🦝
🦞
🦟
🦠
🦡
🦢
🦣
🦤
🦥
🦦
🦧
🦨
🦩
🦪
🦫
🦬
🦭
🦮
🦯
🦰
🦱
🦲
🦳
🦴
🦵
🦶
🦷
🦸
🦹
🦺
🦻
🦼
🦽
🦾
🦿
🧀
🧁
🧂
🧃
🧄
🧅
🧆
🧇
🧈
🧉
🧊
🧋
🧌
🧍
🧎
🧏
🧐
🧑
🧒
🧓
🧔
🧕
🧖
🧗
🧘
🧙
🧚
🧛
🧜
🧝
🧞
🧟
🧠
🧡
🧢
🧣
🧤
🧥
🧦
🧧
🧨
🧩
🧪
🧫
🧬
🧭
🧮
🧯
🧰
🧱
🧲
🧳
🧴
🧵
🧶
🧷
🧸
🧹
🧺
🧻
🧼
🧽
🧾
🧿
🩰
🩱
🩲
🩳
🩴
🩸
🩹
🩺
🩻
🩼
🪀
🪁
🪂
🪃
🪄
🪅
🪆
🪐
🪑
🪒
🪓
🪔
🪕
🪖
🪗
🪘
🪙
🪚
🪛
🪜
🪝
🪞
🪟
🪠
🪡
🪢
🪣
🪤
🪥
🪦
🪧
🪨
🪩
🪪
🪫
🪬
🪰
🪱
🪲
🪳
🪴
🪵
🪶
🪷
🪸
🪹
🪺
🫀
🫁
🫂
🫃
🫄
🫅
🫐
🫑
🫒
🫓
🫔
🫕
🫖
🫗
🫘
🫙
🫠
🫡
🫢
🫣
🫤
🫥
🫦
🫧
🫰
🫱
🫲
🫳
🫴
🫵
🫶
##e
##s
##t
##q
##u
##i
##a
##v
##n
##r
##y
##o
##m
##l
##c
##h
##d
##G
##ï
##é
##g
##ô
##ε
##ρ
##γ
##ί
##ν
##α
##ς
##ş
##k
##z
##p
##D
##I
##F
##Y
##b
##L
##A
##N
##ل
##ت
##ق
##ي
##x
##S
##P
##ù
##у
##и
##з
##а
##f
##j
##w
##Z
##E
##O
##ø
##æ
##C
##B
##R
##U
##è
##н
##т
##о
##в
##і
##ч
##T
##H
##W
##Q
##M
##ā
##à
##ē
##J
##X
##ῷ
##م
##ط
##ا
##ب
##ة
##V
##ç
##â
##K
##м
##ë
##É
##ê
##𝑠
##𝑒
##𝑛
##𝑐
##ö
##า
##น
##Ν
##Р
##î
##Г
##š
##á
##β
##λ
##η
##θ
##έ
##τ
##ω
##ä
##行
##一
##次
##י
##ש
##)
##*
##外
##国
##用
##和
##于
##非
##商
##业
##目
##的
##政
##ה
##כ
##ל
##\
##'
##𝗻
##𝗰
##𝗲
##𝗶
##𝘁
##じ
##う
##つ
##に
##δ
##פ
##ט
##ר
##然
##是
##有
##点
##û
##О
##ə
##由
##之
##г
##니
##다
##民
##星
##ŝ
##ŵ
##ď
##ƌ
##Ă
##ر
##د
##ș
##ı
##里
##ι
##к
##大
##ñ
##画
##を
##書
##く
##海
##ó
##φ
##ή
##μ
##영
##주
##س
##ن
##Ђ
###
##!
##ɣ
##ſ
##р
##ь
##ю
##с
##𝑓
##𝑡
##𝑟
##𝑙
##Õ
##б
##д
##л
##ʾ
##е
##й
##お
##と
##め
##я
##ʺ
##ف
##ß
##ą
##Š
##ü
##𝑘
##&
##ʀ
##ɔ
##ú
##ḥ
##Ş
##.
##ł
##แ
##ผ
##ท
##å
##ř
##Ó
##ę
##ы
##ц
##»
##«
##し
##い
##で
##す
##が
##%
##"
##,
##[
##ã
##ո
##ւ
##տ
##ի
##ค
##ว
##ม
##:
##ō
##ج
##و
##ض
##È
##ʹ
##Π
##ж
##č
##者
##道
##也
##У
##ї
##中
##文
##ш
##π
##ά
##χ
##ο
##υ
##Ø
##ύ
##ū
##σ
##ɑ
##字
##門
##µ
##ǔ
##ʁ
##ث
##ī
##ʼ
##ă
##西
##出
##店
##は
##Æ
##平
##野
##õ
##Ä
##í
##ℓ
##九
##个
##成
##就
##れ
##ひ
##思
##福
##代
##Ł
##ʻ
##ー
##ト
##ル
##ĕ
##ð
##ˁ
##ː
##خ
##ه
##ế
##Œ
##ع
##Ê
##한
##상
##기
##山
##院
##家
##Ç
##ὴ
##ž
##가
##ﬁ
##𝐚
##𝐞
##ė
##ῆ
##主
##義
##世
##界
##の
##𝘦
##ˈ
##ὰ
##{
##Í
##𝒂
##𝒊
##𝒏
##𝒕
##ὶ
##ɕ
##ŋ
##А
##Н
##Ц
##З
##С
##К
##М
##ต
##ล
##อ
##ด
##เ
##茅
##没
##κ
##存
##在
##治
##新
##市
##な
##か
##っ
##た
##ら
##Γ
##Ι
##Ο
##Υ
##ย
##食
##事
##À
##𝗦
##𝗧
##화
##로
##ő
##Ϋ
##子
##上
##很
##好
##𝐺
##_
##ɛ
##ǐ
##ě
##신
##ز
##田
##多
##州
##河
##东
##部
##ủ
##Ô
##º
##き
##り
##𝑎
##ʊ
##أ
##ش
##理
##𝑥
##𝑖
##ì
##ǎ
##원
##은
##本
##音
##楽
##え
##ʌ
##-
##(
##ɾ
##п
##ˮ
##Ï
##ξ
##х
##区
##水
##北
##南
##城
##英
##语
##使
##情
##þ
##ʿ
##高
##ん
##人
##だ
##イ
##ガ
##シ
##ラ
##ホ
##オ
##ジ
##ロ
##全
##動
##東
##э
##不
##能
##无
##も
##ό
##ร
##Ö
##א
##ו
##ס
##ま
##ﺎ
##𝘀
##元
##天
##江
##路
##ϕ
##ח
##נ
##阳
##プ
##ム
##𝜆
##ɪ
##ʒ
##ś
##ṭ
##ò
##ス
##म
##स
##ע
##ת
##ק
##ѕ
##ņ
##果
##斯
##基
##知
##ナ
##比
##ば
##少
##八
##小
##时
##可
##以
##到
##二
##口
##要
##数
##ῖ
##京
##法
##学
##Ą
##心
##花
##Ã
##記
##ğ
##所
##发
##方
##מ
##Ò
##Ϊ
##ح
##ý
##了
##ى
##族
##館
##分
##利
##马
##ὐ
##立
##房
##间
##ك
##하
##?
##生
##あ
##る
##ک
##百
##春
##ص
##ห
##ก
##ศ
##ġ
##け
##年
##ć
##園
##¼
##Ÿ
##눇
##Î
##ำ
##ф
##ů
##Е
##И
##ƒ
##及
##て
##…
##/
##こ
##Ρ
##Ω
##Τ
##Κ
##Σ
##ț
##𝑜
##𝑚
##𝑔
##ง
##ṅ
##景
##林
##ﻟ
##ḫ
##ώ
##œ
##𝑣
##Ü
##İ
##Ú
##合
##会
##手
##加
##ё
##ĭ
##这
##グ
##ン
##]
##フ
##タ
##マ
##ケ
##ッ
##地
##ウ
##ד
##チ
##那
##后
##我
##ظ
##ב
##ـ
##先
##𝑂
##堂
##实
##ᾶ
##ち
##ろ
##王
##如
##자
##ἱ
##7
##Ƌ
##ľ
##ป
##ะ
##동
##テ
##Л
##Ш
##Я
##レ
##Ž
##고
##𝐍
##𝐈
##𝐑
##𝐎
##𝐄
##𝐓
##ń
##Ф
##ษ
##Ч
##Т
##ャ
##ク
##ż
##ạ
##ị
##ɨ
##;
##’
##щ
##リ
##ニ
##國
##宮
##術
##品
##美
##作
##戦
##Χ
##Θ
##ῶ
##ṕ
##ṛ
##何
##غ
##网
##他
##放
##格
##特
##𝜏
##@
##த
##ṣ
##𝐶
##ℎ
##よ
##内
##Û
##ი
##ა
##ŏ
##ی
##宿
##ュ
##バ
##提
##取
##ɲ
##ψ
##국
##𝐢
##𝐬
##𝐭
##𝐨
##𝐫
##𝐮
##千
##ア
##ũ
##Ë
##ɡ
##」
##（
##Φ
##ក
##武
##自
##车
##旅
##下
##名
##朝
##近
##你
##わ
##В
##𝑤
##ソ
##ペ
##十
##ṃ
##Ŷ
##ъ
##•
##스
##石
##Μ
##ζ
##女
##阿
##拉
##𝑏
##今
##永
##明
##ذ
##县
##Ɛ
##Д
##რ
##ე
##ბ
##ს
##ọ
##常
##ṇ
##บ
##期
##ワ
##灣
##–
##四
##志
##号
##们
##更
##松
##Â
##み
##へ
##إ
##𝐥
##动
##Ā
##จ
##简
##体
##Č
##Ε
##日
##語
##어
##繁
##體
##清
##ئ
##ן
##入
##უ
##ლ
##ო
##Ƶ
##Đ
##Ś
##ϭ
##ϱ
##ʲ
##感
##布
##等
##社
##集
##𝗼
##𝗿
##ء
##デ
##โ
##ใ
##屋
##Á
##ョ
##科
##尔
##島
##ˆ
##Ġ
##Ɖ
##Ğ
##ƚ
##Ѕ
##드
##表
##化
##对
##来
##キ
##パ
##公
##机
##经
##度
##原
##風
##선
##}
##ố
##צ
##华
##수
##三
##长
##六
##ג
##𝛾
##Þ
##现
##想
##同
##看
##의
##ĉ
##や
##ァ
##ɐ
##𝐴
##ʃ
##나
##ゴ
##ῇ
##白
##ˇ
##共
##金
##ゃ
##𝑃
##建
##史
##ј
##ể
##Ț
##空
##港
##Α
##过
##活
##最
##月
##長
##言
##价
##리
##住
##意
##Б
##ợ
##에
##지
##德
##𝘂
##𝗮
##而
##無
##𝑧
##‹
##ณ
##Ð
##მ
##Ё
##向
##ם
##开
##】
##𝑇
##𝑢
##ǝ
##𝐦
##𝐧
##ช
##ǧ
##ţ
##đ
##着
##吉
##影
##超
##古
##老
##式
##ェ
##ビ
##Ő
##Ě
##є
##ⴰ
##ⵏ
##光
##ĩ
##𝒅
##𝒓
##𝒐
##𝒄
##𝒔
##李
##宗
##第
##当
##起
##서
##ḍ
##을
##ὺ
##𝑦
##는
##П
##𝑑
##대
##전
##ÿ
##ň
##ћ
##प
##न
##य
##ส
##保
##馬
##真
##そ
##𝐼
##都
##站
##ベ
##ؤ
##ვ
##件
##香
##Λ
##Ì
##さ
##ど
##土
##𝑈
##𝐿
##𝑀
##𝑋
##ন
##町
##通
##ブ
##†
##博
##物
##系
##ա
##谷
##村
##마
##台
##歌
##𝐝
##ザ
##Ŕ
##与
##流
##ª
##ẓ
##𝑆
##𝑉
##역
##ﺔ
##教
##育
##安
##街
##𝑝
##司
##ῳ
##ʂ
##Δ
##Ξ
##𝐸
##Ṭ
##時
##ű
##正
##说
##Ψ
##ụ
##І
##𝑁
##𝐻
##Ĩ
##ồ
##研
##么
##定
##ΰ
##重
##位
##性
##ǒ
##相
##ὁ
##ῦ
##ź
##得
##사
##制
##산
##为
##其
##〉
##ῃ
##室
##私
##‘
##士
##版
##Ͳ
##条
##ә
##Å
##交
##間
##竹
##해
##回
##𝑅
##七
##𝑪
##𝒎
##𝒆
##メ
##ὸ
##성
##아
##트
##巴
##آ
##이
##ἴ
##ἷ
##ὀ
##ϐ
##皇
##帝
##川
##ⵉ
##ⵔ
##ⵜ
##面
##𝙚
##𝐷
##일
##力
##”
##ἰ
##ὲ
##Ć
##校
##Х
##寺
##ἀ
##电
##𝗱
##酒
##寓
##ไ
##ɯ
##우
##พ
##𝜇
##ז
##¶
##𝜋
##ť
##前
##ὑ
##구
##克
##ṯ
##ถ
##“
##ḿ
##ՙ
##ご
##민
##気
##神
##置
##切
##Ҩ
##·
##ŷ
##木
##ն
##Η
##解
##料
##⟩
##0
##𝑞
##色
##ր
##մ
##𝗹
##ˉ
##گ
##ィ
##ᐅ
##ђ
##Ý
##Ñ
##モ
##ツ
##型
##Й
##𝒍
##𝒖
##究
##ʔ
##ŕ
##ネ
##𝐋
##𝐀
##見
##夫
##乐
##ド
##夜
##サ
##軍
##ズ
##Ù
##თ
##𝜃
##エ
##男
##ธ
##书
##草
##Э
##ḏ
##五
##𝗜
##𝗘
##ϑ
##ⵓ
##ⵍ
##র
##場
##ŭ
##ヴ
##セ
##ᵉ
##ấ
##Ē
##요
##소
##ả
##ϰ
##क
##र
##ἶ
##인
##租
##套
##良
##ⵎ
##𝗡
##𝗥
##Ō
##Ж
##կ
##友
##张
##시
##문
##《
##》
##）
##라
##‡
##‰
##信
##ภ
##伊
##せ
##ნ
##″
##華
##김
##ὡ
##客
##Ḫ
##ข
##カ
##ệ
##ल
##ɹ
##〈
##ǫ
##工
##學
##ư
##ở
##𝐜
##井
##关
##Є
##ダ
##ǵ
##𝐩
##ハ
##ญ
##도
##정
##洞
##ノ
##ậ
##郎
##ʰ
##ȝ
##დ
##յ
##ս
##ե
##ų
##玉
##ộ
##ボ
##ℤ
##𝜔
##𝜀
##1
##御
##조
##身
##源
##ϯ
##ḳ
##藤
##ĺ
##ピ
##ẽ
##ơ
##ϵ
##𝐵
##њ
##ᴹ
##ᴰ
##Β
##𝛼
##』
##コ
##ү
##周
##𝜙
##火
##𝑗
##त
##張
##ļ
##ề
##𝐒
##ℂ
##§
##Ϯ
##𝜑
##整
##ĝ
##제
##去
##太
##茶
##ʳ
##。
##𝐾
##ग
##व
##द
##ễ
##夏
##𝗺
##形
##ʷ
##پ
##Ḥ
##、
##Ϭ
##Ἰ
##¡
##青
##𝜌
##𝒑
##ポ
##ὄ
##ὅ
##ך
##—
##「
##ħ
##Ř
##¿
##ἐ
##ミ
##後
##类
##𝑌
##그
##ब
##장
##『
##ម
##𝑊
##Ī
##【
##ღ
##보
##ฝ
##ﬂ
##ờ
##𝑄
##𝗔
##愛
##ɓ
##𝜎
##𝛿
##Ǧ
##陽
##⁰
##ổ
##・
##រ
##Ζ
##؟
##›
##ṁ
##ớ
##𝑍
##오
##ắ
##ǀ
##龍
##‐
##𝛽
##‿
##ầ
##！
##‑
##𝐹
##भ
##𝒙
##‖
##ம
##ἄ
##𝐂
##Ю
##ὕ
##„
##³
##ল
##Ľ
##ह
##ỹ
##¹
##½
##𝜒
##5
##―
##𝜖
##ស
##′
##ន
##8
##ữ
##𝐽
##，
##Ș
##ϟ
##ज
##𝜉
##𝜂
##𝜈
##Ἀ
##ប
##ứ
##ℝ
##2
##〜
##ব
##⟨
##3
##Ż
##ɦ
##ℚ
##Ŝ
##4
##‒
##Ϟ
##ٱ
##₂
##②
##ự
##①
##،
##𝜓
##श
##ἑ
##：
##⁃
##ἡ
##´
##𝛥
##※
##፡
##‟
##ẋ
##־
##Ṣ
##ἔ
##ử
##9
##Ĥ
##❯
##‚
##6
##²
##‣
##ﷺ
##‧
##་
##❬
##⅓
##¾
##③
## 
##⸱
##es
##on
##nt
de
##er
##ou
##re
##ti
##is
##an
##le
##ent
##it
##ar
##ur
##ne
la
##ue
##te
et
##tion
##in
##or
le
##en
##our
en
##om
##ra
##st
##ment
des
##al
##il
les
##ant
##ro
l'
##ri
##us
##ce
##ve
##as
d'
##ch
un
au
##me
qu
##ie
##ation
est
##ai
##que
par
##ans
du
##ous
##au
con
##és
pour
##oi
##li
##ag
une
##tre
##se
##res
##qu
##ais
##si
##at
##ci
com
##et
dé
##de
que
pl
##eu
ch
##ol
dans
##el
pro
##ée
##mp
sur
##ont
##os
in
##di
re
20
##ait
qui
##les
il
##ff
##ré
ré
pas
##ab
##ers
##pp
se
##té
##ac
##lle
##ité
ou
##ran
plus
##ons
ex
##urs
##ale
##am
ave
an
##aire
##age
##ir
##ic
##ot
##ure
##ul
vous
avec
##ère
##ig
av
##ite
Le
##ien
##ort
su
##ès
##ille
ce
##ct
di
##ques
##out
##ux
##ces
##ction
##ge
##pe
pr
##onn
19
##ois
##ier
tr
ét
ne
##du
La
##ique
##ouv
comp
##og
##éri
##oir
ar
int
00
##ées
##otre
##che
sont
##iv
##mb
ent
##ist
##ain
##ati
ac
mo
##ut
##pr
##un
##id
##ap
##and
##ion
app
son
peu
##aux
##ance
##orm
##um
tra
##ouve
##ren
Les
##oc
##ui
##ise
sa
qu'
##ert
##ette
Il
##ss
##..
##dre
##onne
si
##ine
ser
##lé
mais
##uis
aux
##én
##ate
te
##op
##ations
##éra
n'
aut
En
s'
tout
##ors
##ub
al
##able
Ch
l’
##ter
##mes
nous
##ay
je
so
comm
parti
on
##lo
##ours
per
##ace
##ill
entre
##ard
votre
##tt
##im
mar
##ten
##ib
##end
##ens
##lis
être
pré
mon
...
##ants
##ins
me
d’
##ph
##ad
res
mé
##ments
comme
fait
  
éc
st
##aires
dis
imp
cette
exp
ont
##ond
ai
##ing
##ru
##tique
##ême
##alis
##sion
déc
##mi
été
##tions
po
car
th
L'
bien
##eur
##nes
##ég
10
##ence
ad
##ussi
inter
ses
##tit
Par
##bre
##teur
##oy
##if
##vi
ma
ann
##oire
cons
##cu
##ord
##rent
elle
pers
même
##co
18
##ang
nom
##tin
##tif
prop
pre
uti
Un
).
or
ob
am
acc
deux
##oup
faire
cel
rés
##par
prés
##tes
trav
pe
##vent
##lles
Je
ren
##lic
aussi
co
##ér
peut
##alement
),
Fran
cont
##aine
tou
##ls
##ire
c'
##ème
es
leur
eff
##jet
nouve
ca
##près
fin
##its
gran
##lement
for
##ts
inf
##onc
Mar
Com
très
ter
cl
##iss
##av
De
ces
##all
ass
##ez
pri
##cher
diff
##ités
##min
##ourn
##ante
ph
##mps
##eux
##tiv
##iques
utilis
##ail
Pour
##ble
sé
ag
sou
##ign
produ
##use
ég
##cip
##ages
dev
sp
##ose
col
ab
##ult
##ver
##alité
ra
##aint
##man
##olog
##ong
##éd
sans
##iste
12
15
##aut
min
##fin
conc
##ats
év
prof
##des
##tic
##ente
conf
##ères
##rit
##ales
##ies
##ures
##ec
17
##ob
autres
##eau
##ouver
rec
##oit
##ser
pos
##ière
sy
dire
##ét
rég
An
gr
cha
tous
tro
##mbre
##orte
man
##elle
Ce
##igne
##ler
env
Ar
perme
In
était
##ner
##qui
im
Al
j'
fran
quel
pub
16
off
at
##insi
jus
mes
##aient
gra
soci
lui
11
Et
ils
##em
##olu
ans
##oint
cas
der
puis
dép
temps
##tement
fil
##ves
sous
##éren
notre
gén
donn
France
Au
jeu
##ole
cré
14
Th
##ém
##lè
##uer
##puis
ret
trans
vos
##anc
après
Re
##ents
où
avant
vis
form
13
##ches
##asse
également
##ains
##ass
disp
##ari
##int
cor
##tis
##th
vie
ju
op
avoir
lors
nombre
##core
sit
##tiques
##one
##ric
##ris
##çais
##ieu
##enne
##endant
éle
##cep
##are
fon
##oule
##con
ép
vi
##ues
emp
aff
##élé
mil
##rig
fa
##ateur
ainsi
dern
personn
##mple
ins
rép
##agn
##oul
donc
dont
seu
##teurs
##ron
premi
as
##aison
pay
##ieux
C'
##cc
##mis
Une
##gan
site
commun
21
the
id
##oupe
encore
non
##cess
esp
Si
inst
ni
part
autre
cert
##ern
##aiss
##qu'
mal
##ven
enf
fois
réf
att
bas
##oci
équi
##lique
cour
##raph
##omm
##nement
fonction
##od
30
##osi
##lig
##rer
St
##rai
Dans
déb
Dé
né
contre
Nous
##mble
conn
##ich
Vous
depuis
##iter
##ici
of
##oute
sec
français
généra
##ok
##est
##lu
met
grand
##ov
pren
##uit
##érent
##chn
petit
moins
inc
##rait
##ilité
leurs
##isse
##ête
##tive
alors
##ances
nos
monde
Pro
##aines
rapp
##ide
##iel
hom
##velo
point
dro
##ions
Ré
cent
##velopp
mat
rel
##été
##ables
cap
##ieurs
suiv
##erci
beau
##rib
##per
##az
##ograph
indi
##ines
poli
cli
inform
jou
ver
##uelle
sal
rep
const
soit
##ché
Pl
##ature
##mier
##voir
##antes
long
Con
##jour
On
bl
prin
##iens
##arge
Elle
ense
##ode
22
pres
##éci
sc
mod
étu
##omp
dés
##vis
ouv
##estion
organ
tu
##jours
not
##uel
avait
hist
##oin
entrepr
che
pays
permet
Mais
profes
no
Qu
toute
port
##tte
fr
##ram
prix
ven
pouv
##eure
##aille
##agne
##mé
##iers
##ctions
bon
##mer
trois
situ
place
jour
Su
##ger
meille
import
personne
vers
##lier
##ade
préc
présent
mus
##act
Saint
différent
techn
réalis
projet
Des
##titu
développ
travail
##mar
##ES
##ôt
spéci
##ow
»,
Paris
toujours
##ak
##ises
ça
##ges
effet
fer
cro
Cette
toutes
plusieurs
pass
##elon
##ps
possi
prob
quelques
partie
loc
sera
##ath
##dic
premier
##quer
##dition
déf
##êt
##ange
fem
pi
##ress
arri
mont
ess
va
fam
repr
cela
##uses
##onom
##AR
exe
artic
##ouvez
##omb
comment
ci
can
recher
##ateurs
and
50
##ense
aur
##une
##ore
##illes
##yp
##pect
hui
##cri
première
télé
Car
prog
liv
chez
dur
hab
##ivers
propos
##aî
suis
gar
##mand
année
eur
##ON
ligne
##ène
public
##ident
##coup
organis
activ
##ER
##vice
##ros
mois
##ia
##ement
##ect
##ication
déj
syst
##sionne
##amment
##ande
faut
##ta
RE
##uite
lib
##ites
équipe
##form
##ds
##rée
##cur
dom
coup
années
eau
##oix
envir
fond
##ile
##eb
##olution
ville
lég
##atique
##dé
##istes
phot
personnes
peuvent
princip
J'
##érie
##orti
##vé
act
Ét
contra
##ration
li
##ah
##mande
particu
cours
dou
bi
##tel
24
25
supp
beaucoup
nation
##rez
mis
##cul
reg
moi
##ix
nive
chaque
##ly
dess
##ôle
élect
moy
##cle
##ices
##gn
##seil
bes
voir
sol
##rique
##bles
parf
##qué
compte
orig
##vers
serv
».
##erne
afin
##rir
##uss
jusqu'
##iti
##port
doit
##érences
##cl
Int
nouveau
##rés
mom
##ast
professionne
##osition
##aissance
qu’
nature
##ouvent
cher
sign
éch
ant
fra
vol
##ed
##oli
grande
##lex
##ération
##erie
jours
som
##ulture
Jean
pra
Se
##gie
Cl
09
##itre
déjà
##cien
##ût
ach
quand
plan
dit
hum
##tra
pouvez
appel
##ili
avons
exemple
##ative
##ach
service
##isme
remp
##sions
grat
##ologie
cet
suite
##tifs
Ne
Ph
##vre
##ock
pa
##amb
nouvelle
23
là
groupe
##rie
nécess
##éric
##èle
vrai
tel
##rier
rap
##aly
##éb
habit
journ
avez
##ième
économ
représ
ten
##idé
produits
lieu
qualité
fut
##cteur
is
##AN
REF
Ex
##vient
colle
##anger
##ud
m'
bou
The
##tres
milli
08
##atif
savoir
##iller
##jourd
enfants
##ueil
##ann
partir
pendant
##oph
maison
appar
tour
film
selon
##nce
##érence
##tien
##ost
##nent
##contre
rapport
##ug
chau
niveau
notamment
##oires
##éli
##év
##oris
région
##ditions
##ager
expéri
##ry
permett
s’
to
##ype
40
pop
char
associ
trop
recherche
##atri
moment
siè
Mon
##gl
##éro
ensemble
01
mise
maint
entreprise
voy
##erv
##ras
trouver
assur
##ribu
##cture
##anté
##ographie
sorti
cv
07
sep
n’
06
##era
Me
##érieur
##vier
cin
eng
données
##ttes
cal
##ame
mati
##tal
constru
##iles
##ori
histoire
forme
dépar
ici
##ack
##sement
découv
début
##EN
##âce
système
mot
##otes
##uc
all
contin
mettre
celui
dém
Eur
popul
##ax
##entif
elles
##sez
sécur
sem
pouvoir
porte
Bl
",
##çon
##TI
intern
##atis
comb
##ik
##ception
sub
##lar
cr
article
Sh
dernier
##oth
program
##ible
Am
##ira
cô
homme
##hait
##adi
##ox
resp
prendre
politique
install
rapide
##ture
compren
souvent
retr
Comment
chois
péri
##illet
##enir
souhait
##crip
##itaire
##gé
rou
Cha
fourn
##ierre
##lière
famille
mai
##jec
##ane
##yn
bonne
anim
##ret
droit
##lin
##gent
dist
##érer
log
tant
résult
05
ceux
Or
##ule
question
##vez
possible
dét
##alités
##éré
##dif
##assi
Ces
##oles
sau
fais
##onnement
particip
mer
hô
fl
reste
rencontre
##tier
##amais
##lément
end
ris
er
demande
consi
##istre
##ome
aj
ple
améric
##UR
men
soi
##orme
num
services
##be
représent
mort
prom
##resse
imm
##ression
Déc
##èg
mieux
Après
voit
celle
oc
jamais
eu
gouver
répon
sour
rien
##illeurs
##cid
Ils
sens
Tr
##ith
04
##lié
Te
lim
vo
étab
##yant
60
EN
##ront
##ice
##oh
Mont
arr
ref
aujourd
br
##ention
##tenir
face
02
type
certains
demand
applic
internation
##ition
société
tot
##ielle
##oût
##vée
produit
atten
viv
piè
##tant
##ril
hau
##vec
##pendant
##ting
occ
appro
Sur
adap
26
posi
##éné
vale
bar
##tout
exter
##opé
us
accomp
##rant
compos
##ook
03
##ope
choix
##la
80
éner
Es
aide
ali
##ke
##dit
série
##suite
Can
Cel
dispon
Ad
##tite
27
vé
##ionn
formation
président
28
développement
ailleurs
##gment
oct
##ienne
informations
fac
Col
Gran
##ocu
rédu
analy
##oins
##//
##lace
besoin
##enc
##oration
ur
##IN
htt
conseil
conne
##uerre
##IS
D'
##art
Avec
pris
##rière
##cup
tex
##eures
://
##aise
##rage
coule
##anvier
femme
##lection
indu
nombreux
##dra
faci
grâce
##lie
réc
mode
##ider
commune
base
##xim
trouve
##ières
##let
maj
vidé
cir
champ
##ément
santé
bat
Tout
cadre
##obre
##vembre
##tembre
juin
marché
##oque
sécurité
œu
##minist
cat
défin
mob
##rain
respons
rev
culture
lit
##ime
##lise
mars
surtout
proc
##asion
mag
ouvert
préf
Gu
pol
##lab
travers
##quoi
mul
##isation
offre
29
##atre
##idi
".
jeunes
vraiment
##abilité
pens
##RE
##téri
##loi
##illage
temp
##duc
différents
vari
agit
thé
90
ress
##ind
simp
##ip
Ju
traite
sujet
##vention
##aces
cou
titre
général
##roy
centre
intég
##eurs
seulement
manière
près
inv
femmes
matéri
utilisation
##gré
abs
contr
##cembre
##ié
veu
ST
##alisation
change
objec
heure
Gr
fab
##entes
hy
pu
##ze
janvier
##enant
!!
étaient
saison
##fs
table
DE
univers
##aul
##ossi
##tez
post
sais
##alle
##cont
disc
effect
Notes
etc
parc
##nel
bois
gen
##ones
autom
##eter
rece
objet
serr
31
novembre
septembre
simple
##son
propose
chose
##gu
unique
Bar
corps
références
##tenu
cri
mesure
côté
Char
lang
##met
##nez
petite
super
octobre
##elles
Cor
##ensi
eux
europé
puiss
Plus
abord
utiliser
##erm
##land
##utes
inté
état
No
camp
façon
Du
Comp
ord
70
##mbl
but
val
fort
##cription
##ses
Que
propri
App
charge
ayant
effic
sent
Pe
Ma
Pri
augment
seul
accord
##icile
font
##cun
laiss
##II
béné
Sa
avis
décembre
rom
##mment
atte
##igure
travaux
Son
##ète
Europe
Mal
rencont
vue
étudi
raison
##ences
heures
L’
administ
cuis
territ
##mée
##âte
##agement
##pl
expérience
##til
passer
élé
artis
##ww
##io
##ive
##LE
indust
compé
dès
##érique
prov
écrit
sommes
##uellement
Man
opp
##TE
avril
##ils
parce
reven
juillet
##anci
inves
règ
gestion
##usion
##lème
##rais
##aître
entreprises
docu
##ètres
##cre
##orer
##mission
doi
occasion
passe
##ity
externes
seront
mondi
reconn
rem
consid
production
##acité
bénéf
##ase
##bilité
alle
second
##ict
assez
35
www
##mbres
plu
##dez
Pub
quatre
nouvelles
large
équip
Liens
##ysi
êtes
tourn
45
Ren
##quent
##ital
Ab
concern
Ent
gouvernement
km
environ
##nelle
différentes
améli
##aliste
##lièrement
Ant
emb
suff
##oses
##ton
##itation
problème
aller
air
##ologique
....
meilleur
cer
##reg
semble
situation
##iche
##ards
Is
loi
Acc
##aît
conte
##évrier
conditions
##uni
retour
haut
siècle
##tection
feu
##ourg
méth
tes
important
##seur
##line
##...
##acté
##sy
dernière
tête
##aï
étant
soir
française
##ision
Tra
serait
##ART
sci
cy
##vision
activité
entra
Pre
modif
As
Av
Aut
points
direc
donne
livre
gratuit
Ser
Unis
aliment
jeune
be
collec
Lors
##oot
Rép
action
condu
##onde
espace
accès
obser
##air
arch
c’
Pierre
##af
explo
##val
divers
mach
période
##tient
vit
##net
##erts
consomm
Mich
Voir
devant
origine
Bon
ensuite
##tim
##rop
vac
##ets
atta
lorsque
##yle
sh
minutes
parfait
Di
art
##once
environnement
proch
pratique
donner
clients
sup
histor
Pas
##ber
propre
norm
classe
hommes
Ac
##quel
Ou
##tation
pie
semaine
##pec
voyage
médi
##outer
euros
stru
autour
##app
Ass
programme
juste
guerre
prév
enfant
New
##ardin
initi
##arm
##dio
ton
##né
##œur
équ
Sp
modèle
Cela
quant
##oti
##oun
Comme
membres
##can
nombreuses
février
##orie
##atiques
page
##der
origin
##lir
##igh
plut
poi
marque
pati
fau
rôle
garant
##ote
Bel
##atoire
##tent
Sy
##èmes
Af
reç
pense
toi
sein
##OU
##iciel
vu
##atives
##phone
bâ
vendre
pourrait
sû
Hist
##loy
millions
##ouse
##tives
couv
sélection
parten
##ides
##ibles
destin
sus
réseau
moyen
ancien
##èse
##iz
##orité
présente
##resp
quoi
autant
voul
médic
##gement
END
##usse
résultats
intér
Ge
existe
activités
##did
##nov
stra
##ada
##cin
START
Cent
cm
##alent
##ambre
##action
##cine
pan
Artic
lum
commenc
main
salle
vente
##iver
étran
##ork
États
##ancer
argent
enc
traitement
##ulaire
août
regard
essent
commerci
Go
##iance
déclar
mess
appare
mari
prépar
chauff
.,
##iser
aucun
Lou
carte
oblig
maintenant
32
##ède
vidéo
##bum
##isc
angl
club
gé
##AL
gu
##alif
resta
deuxième
plutôt
amb
Be
net
##ral
cit
##lac
étude
Est
Notre
##duction
multi
version
##rom
trouv
tri
36
quelque
##médi
##odes
fai
Ag
nouveaux
prise
99
création
nécessaire
vér
##AS
##issement
gros
journée
liste
##auv
##lant
conv
restaur
33
process
longue
physi
corresp
..
aider
##uve
##anche
mouve
##ash
##ki
##rice
quar
application
proté
##ulation
CO
consé
##ablement
##actéris
##quelle
constitu
parfois
nég
##obil
information
##rendre
intérieur
musique
##icie
anci
technique
##),
Naissance
##part
respect
rac
Br
##usement
succ
terme
jeux
Mus
sud
tard
rend
tar
accep
peint
Co
établis
Comm
Rés
##orce
web
image
##cune
pot
##ini
##tr
##stra
laquelle
intéress
##oser
##rient
petits
##AC
domaine
rapidement
75
##amp
élè
##ony
cause
bout
##liers
perform
##face
valeur
chac
##char
Bien
visite
gens
énergie
##oyer
certaines
risque
signif
parent
##of
taille
And
créer
##fois
seule
##).
belle
département
Cont
aurait
nationale
##aisse
##rées
##dien
Alors
neu
doivent
Nouve
grands
sites
emploi
].
aim
prend
ques
rue
match
##tées
##vid
idée
plate
école
spécif
financi
##ess
aime
##ël
##oud
##mo
procéd
lo
##he
typ
##rale
rév
##celle
   
questions
client
photos
Mer
entraî
choses
ordre
transport
correspond
études
Merci
sac
Sal
pap
État
chef
tend
pourquoi
construction
##ina
##étique
##sych
##tie
##oine
##ates
particulier
répar
Fil
réser
devient
trava
Esp
méde
##auche
plais
obtenir
##oici
Rob
accueil
##OR
##iennent
passé
##ude
ministre
ap
##ibli
compar
œuvre
solution
fix
ban
##onnes
Ter
mê
quoti
sex
national
##ute
##ient
##ève
##cident
##men
processus
Per
démar
##rou
##aw
sim
##ick
Ang
##itaires
matière
date
complè
Alle
##rence
##tine
##çois
##len
photo
##orter
##oupes
protection
##ino
straté
##orts
fils
nuit
##aume
fille
Post
##aud
##uels
taux
##agner
indé
cherche
contrôle
##tivement
##auté
Ainsi
déci
idé
##quant
dessus
vient
##ape
anti
##cessi
enreg
fav
##cipe
##hic
##iff
tomb
##IC
terre
poss
ment
Univers
##cer
##indre
##alog
maî
Réf
Conseil
##ys
droits
##els
classi
découvrir
population
fré
##lam
##cier
34
##olutions
rendre
projets
position
##ana
##ribution
commer
éléments
##iez
veut
##éc
##apon
##ek
##quée
connex
blanc
44
##èles
Depuis
##stes
ème
##igue
Sch
père
##iner
bâti
##neur
loin
frais
évé
auprès
Bi
secteur
##èrent
Mo
##gique
candid
Grand
conse
bal
##ma
époque
##endre
âge
##ots
compagn
##up
##éma
tradition
nord
tent
##ppe
##ell
utilisé
##lèmes
##ave
##étés
##oure
48
##roit
album
noir
américain
##lue
mm
oub
montre
##ignes
durant
95
##IT
travaille
##istance
diffic
aura
Gar
##prit
collab
anglais
Ins
priv
zone
##termin
Fin
aucune
François
##lus
##quis
espè
clim
##onie
extéri
village
Nord
dég
blog
objectif
##tiers
##oie
réun
compris
##ince
pièces
civ
##dia
opéra
besoins
##dis
économique
caractéris
serrur
spect
##ué
cinq
##tern
##IL
genre
##ck
##ume
38
##yth
syn
professionnels
organisation
##EL
##ouss
##sionn
tit
précéd
##nte
55
##iment
problèmes
attend
mét
chant
##orde
##ays
éval
bord
##ano
42
milieu
route
professionnel
présence
parmi
http
lire
gam
Joh
##érieure
39
Selon
cuisine
Marie
style
Sud
grandes
identif
##iné
US
iss
facile
entrée
deven
capit
jur
##lacement
analyse
plein
##OS
articles
del
##lent
scène
direction
##chés
37
##lob
sort
Ob
##stru
voiture
appré
##téra
##ources
##roid
97
recomm
##ades
##ousse
catég
donné
!!!
avais
essay
via
agré
rais
publi
sortie
fle
##tice
##att
écri
##rog
véhic
rej
bo
document
rob
fabric
Jac
plupart
ve
employ
écl
psych
##ars
Cons
##âteau
Entre
##inte
régu
directement
##itez
##ivre
##oux
libre
pil
fé
##vres
simplement
LE
réponse
Champ
techniques
choisir
##AT
meilleure
Ber
rent
Cour
plaisir
social
gaz
scientif
Pr
's
territoire
pat
##ennes
hôtel
lien
Accueil
Op
##raient
individ
investis
couleur
avaient
auteur
industri
gratuite
##TION
by
##rec
départ
premiers
disposi
symp
##âtre
mic
##gne
sûr
##veur
##êts
bure
##uide
commande
parler
##esse
Prix
##uelles
Prés
Ver
##ara
##inc
##osé
vont
contac
Port
For
direct
He
Quel
41
##ection
##we
ta
intérêt
renf
extra
adresse
##tils
mère
##gue
Ann
termin
détail
##orté
stock
Val
lut
##ha
##érif
##vie
maxim
fi
Ben
texte
éviter
excelle
utilise
##ducation
##AM
fich
##titude
##idence
personnel
El
##ament
##nements
force
Figure
particulièrement
Roy
##cole
édition
transf
cœur
moyenne
ordin
soli
##uire
matin
##yc
transform
chambre
installation
cu
lequel
##ènes
##ernet
celles
##rite
Louis
achat
Mé
##ootb
mêmes
association
##book
Lib
précis
jardin
amour
situé
Cependant
##ètre
ami
code
Lire
succès
affaires
pours
Jeu
##asseur
plac
##illon
##cal
confort
relation
##pend
Canada
tempéra
##tition
annonce
##ocra
##itable
concernant
broy
Act
##da
nu
Film
comprendre
##omme
détermin
permis
92
Dieu
difficile
ast
enfin
##crit
fru
##uation
haute
Pré
sav
##ormais
qualif
magn
terrain
##uy
43
réaliser
##ieur
internet
confir
efficace
disponible
98
##ige
cam
51
##unicip
Histoire
Bou
chacun
chale
croiss
Pers
class
##lor
j’
##gence
gard
Soci
##uré
##avant
souff
##ublique
san
immobil
##enn
command
Conc
cé
##charger
nav
contact
communication
doute
pou
permettre
comporte
acheter
durée
vois
##ows
vent
##ross
imag
jouer
double
meilleurs
relig
##fait
##abil
assurer
Dis
##ka
##nces
Télé
parents
viole
https
##ications
Cap
Bas
chemin
épis
mouvement
##och
Tous
##venir
contrat
esprit
##estiv
Publié
poste
gauche
mots
91
référence
manif
65
##udi
##ere
administra
49
sociale
Décès
politiques
cop
##gh
52
##ple
##oss
Québ
C’
connaiss
##itter
##oise
Che
##ynam
Afrique
Paul
vite
LA
recommand
##rist
cul
dén
instru
remar
poids
46
##écu
dél
85
Cet
##cs
##undi
images
Gal
##xte
peau
II
vir
orient
Cert
##urer
permettant
Tour
##time
Ste
bénéfici
Quand
##ster
mas
adop
56
Français
volont
##issent
##êtes
59
cook
    
habitants
##cteurs
appli
Sam
Cas
##aie
international
compéten
langue
mauv
##eaux
Cré
47
Gra
Web
##alisé
consul
pén
##oncé
enseigne
devrait
archite
54
Michel
dossi
##ronique
Min
six
Pal
outils
complex
##ules
lab
tém
exist
Internet
##sembl
##émie
Exp
occup
##reur
##atifs
##ologiques
##orn
parle
répondre
##ives
##ancement
##èque
machine
vivre
rouge
mesures
calcul
we
conseils
vites
##sements
sensi
insp
ouverture
##vement
source
vert
##ville
dispar
##yl
ident
possibilité
commence
93
types
confiance
ir
presque
Québec
minim
64
spor
##yon
Sc
mém
cra
##arité
sociaux
couleurs
94
##IE
##cel
satis
suivant
Phili
##uration
##estival
amis
96
yeux
##quête
chiff
##ae
publique
##qués
suivi
57
##ational
rê
excl
Face
##rim
expli
désormais
##temps
John
voix
tels
contenu
##oré
##issant
##get
pièce
mondiale
générale
53
Sé
connu
troisième
én
permettent
numéro
##rimer
dernières
modèles
actions
semaines
droite
surface
manque
rester
proche
##to
exception
changement
stat
mécan
##ata
vacances
urb
ital
électrique
Res
##charge
##ôme
Tu
89
##naire
réel
##iteur
##ID
concep
82
promo
opération
##las
pied
58
soient
##ater
concent
##umes
certaine
peux
##bes
hés
design
78
##ination
Posté
capacité
membre
##ogle
##onner
supplément
structure
municip
interp
Ital
disponibles
Sec
##raison
##ical
réalisé
cheve
décision
##ories
Cal
72
##ung
observ
crois
élèves
autor
At
with
changer
##iement
exc
##ension
attention
hors
soutien
##adie
facilement
##ualité
oeu
##rons
Fer
bel
travailler
presse
suivre
Mac
pal
solutions
derniers
vérif
##quence
Ed
retrouver
77
arrive
##ctures
##urant
tarif
affir
Em
mél
Centre
arb
Wil
généralement
CH
Rou
##ws
multip
##arde
##oo
dessous
diman
Lau
Gen
##llement
##AU
Dan
disposition
oui
Anne
communauté
joueurs
entretien
do
##ENT
Nic
chap
Ville
éd
##lande
##érap
Votre
Jou
##duit
##less
physique
longtemps
Nos
gamme
devenir
Enfin
##tière
merci
Mad
laisser
##RO
##tée
##ouverte
##chant
directeur
vic
vais
moyens
##NE
importante
##ritann
certain
lecture
##SE
88
Im
af
Beau
isol
Articles
##va
pratiques
agric
assurance
ul
##rige
##titution
total
groupes
##magne
##éral
responsable
scol
influe
##otte
##tir
vict
Mat
Sujet
##old
mor
évolution
67
République
historique
same
petites
ancienne
littéra
em
lumière
Alex
hyp
##oil
entière
publié
située
venir
##tivité
Har
##main
sang
##atrice
réalité
##mine
Liste
huile
##ube
##vant
##rid
66
Bra
crise
##CH
Trans
lesque
##ciences
hor
##lit
Form
##ague
répond
ferme
##ège
##endu
rencontres
IN
Etat
dix
autoris
dimanche
équipes
message
écran
prêt
62
envie
Geor
mi
réseaux
coû
ble
arrivée
ate
communes
proxim
extérieur
ang
téléphone
##cles
##ares
##ilib
Site
Dire
##lage
lieux
##sine
Dav
faites
Chine
##andis
importe
effets
bureau
##çu
lorsqu'
illu
##riques
##uté
##RA
##urent
laisse
##ambres
##novation
##ilos
##iés
campagne
##lect
dipl
chans
##tend
navig
68
ressources
test
##UE
##qu’
86
Maison
##ama
84
##aci
##tié
dépend
potent
journal
71
76
carrière
bud
exam
devez
quotidien
explique
Deux
malgré
faible
résultat
##aliser
##itant
##conde
87
Emp
##rich
##lation
69
Hau
Tro
caract
passage
parties
séjour
##érée
##êche
glob
##erté
patri
##ME
##agé
##gén
vitesse
allemand
propriét
premières
pleine
Off
suc
pierre
sorte
cependant
méthode
améliorer
##ancé
83
##irs
commerce
magas
##ym
##oign
top
81
##ailles
proximité
##istère
sait
##CE
from
forte
mission
##ight
faisant
Phot
puissance
Voici
rappel
train
##ames
cookies
pose
économie
ouest
Mag
conten
outil
##iellement
##prise
salari
Prof
seconde
##mettre
##uler
bu
européenne
Université
##iée
dispose
micro
Rom
##ootball
intervention
contraire
finale
offres
uniquement
acteurs
Ret
Allemagne
livres
##ial
Union
Hen
##DF
maladie
joue
##ruire
Christ
##onte
croissance
arrê
fonctionnement
nett
##ressi
somme
##ste
##by
Fre
quartier
réussi
sépar
immédi
Qui
##ood
consac
Jacques
##bon
combat
enseign
température
Jus
appareil
roman
pages
TV
voie
exerci
##isé
##ionnat
conserv
Ca
##vel
vendredi
cre
Her
##zz
mail
démocra
Cam
souv
usage
t'
chaî
##ref
numérique
##indows
Mor
nour
##ologies
74
accompagn
Toute
consommation
##arch
##ley
spectac
Charles
samedi
##uisse
##tés
Références
relations
##pa
##ura
61
aspect
63
PC
profiter
##este
##credi
puisque
moteur
Conf
meu
Imp
##ory
règles
dynam
utilisateurs
##ark
##rance
##cis
idées
matériel
##éder
quelle
extr
##dam
établissement
marche
Google
##ende
véritable
73
sport
--
sole
##tels
actuellement
##bil
étape
zones
roi
Peu
armée
logiciel
mobil
##bert
dév
##ary
principal
##gies
arrêt
lundi
films
compagnie
régime
##chement
Chris
Pays
soins
mariage
Non
parcours
circul
approche
dirige
riv
garde
cab
distance
##log
prot
roy
##lymp
##veill
Rég
graph
##anne
souhaitez
ray
collection
remplac
pression
systèmes
ri
##issage
créé
endroit
Dom
##ty
île
##otel
suffis
avent
cinéma
##iction
Cro
gal
course
##ône
professionnelle
##çons
##rend
##SS
##lim
##ky
amén
support
##ttre
retrouve
danger
##AG
den
##inaire
##aque
##cience
étrang
##AP
##DE
dra
continue
demander
outre
comprend
joueur
voi
ET
mur
##astique
dent
trou
atteint
séri
telle
##titut
chance
vin
demi
exemp
constit
Rh
##érant
église
soleil
##avi
fournisse
79
villes
Ro
Rec
internationale
fémin
dimen
fonctionn
dol
concerne
##demment
##alisme
valeurs
##érés
pourtant
concur
caf
court
cheveux
compétences
risques
We
Lo
##ker
pourrez
termes
animaux
fen
pourra
indépend
##aude
connaissance
université
##car
##range
##moine
commentaire
##do
supérieur
York
citoy
couvert
tran
mobile
fre
Puis
##anie
retra
Elles
rendez
##ographique
Lu
tandis
évent
Oui
##rement
trouvé
développer
##ilan
chambres
Jeux
conception
accessi
PS
intro
Parti
altern
récup
Air
##cé
coût
##onné
Inter
domicile
lois
##tistes
appelle
##uter
##pital
famili
##éros
##nels
cath
Del
stand
entrep
impact
##hi
##ld
principale
mètres
Bibli
figure
formes
effec
##être
compt
britann
##iant
Arch
métal
."
enregist
défense
défini
##ario
objets
##limin
##ussie
Martin
américaine
##ocation
dessin
classique
##aix
siège
offrir
choc
découvert
Italie
##OL
pis
connaître
condition
nécessaires
##ommage
concasseur
conser
##mont
bran
##ociation
station
##lication
communi
possède
juridi
urgence
Pourquoi
##urg
peine
Aff
automatique
##ores
Bal
##tence
finalement
Gén
CD
forum
naturel
Découv
proposer
ait
décidé
consult
##CI
étudiants
gagner
arrière
perd
importance
mains
complet
##rét
administration
partage
tiss
##user
certif
##xe
adul
Ve
bru
Bonjour
principalement
collè
hiver
##bourg
envoy
##terie
Philippe
affaire
##IR
inde
dos
chauffage
Cat
patients
red
continu
béb
reçu
perman
contexte
Pat
déch
soulig
célè
##ricité
##oyage
Lorsque
exposition
##pes
légère
principe
phase
bande
##ilosoph
dossier
cur
perte
##ariat
lettre
##ieuse
mémoire
##yd
##ositions
catégorie
##yst
repro
S'
dédi
##alogue
agence
Robert
four
cartes
symb
##arn
##rès
immobilier
##assage
vas
ha
##nth
##alisée
liberté
connexes
Aujourd
Bern
autonom
dimin
féd
majorité
hauteur
##itée
Vie
San
##irer
##lég
##usé
courant
ara
industrie
scientifique
Facebook
Lyon
locaux
##ellig
police
commentaires
relative
##rages
publics
douce
##olique
éducation
paris
rense
##lif
Tur
fact
##uxe
##atur
David
avenir
propres
##cte
réflex
##forme
magnif
instant
contemp
déclaré
Avant
##ll
desc
chaleur
##omie
poursu
militaire
exig
cade
Coupe
##ink
fonds
##deur
tâ
livraison
Windows
Lond
##keting
()
bons
##ondre
Luc
bonnes
exécu
##olé
papier
##oulez
##ibilité
meilleures
##__
apprent
##çant
therm
Ali
##quences
Hô
Jo
.)
bac
##mart
saint
dér
Bro
##vage
coeur
wh
Super
##MP
##ader
arm
contacter
Sans
##own
toit
Art
partager
##OUR
effectuer
déta
##seurs
exclus
Chaque
accue
##rand
assure
Wh
##olf
manifest
Nom
amp
##ulté
##gée
##mon
respec
émo
réserv
impression
##nelles
objectifs
exer
location
##olas
satisf
représente
facil
##uil
expériment
##obile
##RI
##ni
sept
utilisateur
Pol
Nouvelle
tre
Vol
raisons
couple
dollar
réalisation
scén
Société
crit
peur
réduire
##ister
stratégie
Dou
simil
Mes
Dim
ache
rele
caractère
différence
##inon
moderne
documents
extrême
commencer
attra
technologie
derrière
jeudi
tableau
param
fig
serrurier
suffit
##ey
##vés
auto
##ulé
thème
renouve
##gés
##go
évolu
tendance
Biographie
indic
chim
##quet
sortir
trib
##ft
[...
##lée
##olume
##cule
Fab
Fem
##rasse
##alise
##inet
bless
exploitation
##idité
apprendre
chin
section
phén
##onge
enseignement
##low
Belgique
repas
reti
commis
Petit
maximum
fonctions
péd
équilib
XV
##illa
appartement
##tilis
div
atteindre
##anges
##ault
salon
Ses
légis
bâtiment
ajouter
cad
##assin
dig
##alen
bra
##égét
##unis
Ban
##disp
souhaite
dû
bus
XX
contrô
suivante
franc
applications
##resser
pé
événement
forces
renfor
go
prim
Poli
##enses
##ingt
chauss
N'
illust
##airement
Premi
telles
##andes
access
##tile
lic
prest
##ET
voil
clés
Commun
enquête
Sim
vide
aband
##ian
fou
Espagne
présenter
quit
delà
tax
neuf
principaux
personnages
option
##OT
##crire
Article
logement
ajout
lu
boule
prochain
veux
atti
CV
mercredi
acquis
caractéristiques
cellu
Met
découverte
format
##roph
adh
exper
immédiate
concours
##avantage
rest
##onneur
##orique
usine
favoris
Fond
##ding
Noël
bour
##iciels
mine
##chent
parfaitement
complète
Journ
mardi
ordinateur
##itent
Sport
##king
local
lutte
##odi
occu
Tw
ext
prochaine
coord
Ach
##osph
lignes
déli
boî
##anm
voire
ti
Même
absence
##semblée
victoire
Très
panne
enj
##mation
deme
##ket
élections
espèce
##uest
élément
partenaires
portes
conver
Né
##agnos
##rine
##intes
##ca
Thé
fe
##uff
prati
porter
Japon
##ks
Bo
##aises
justice
motiv
choisi
Mic
##oft
montant
##US
##venue
naissance
devis
##MA
cant
Cô
football
concept
regr
##ney
voulez
##actions
familles
##ola
rét
régulièrement
aimer
installer
AR
réuss
Mai
lour
avance
Tri
végét
Inf
note
broyeur
piscine
performance
philosoph
idéal
pois
##liquez
personnage
week
##oindre
##réal
##rat
Vis
davantage
##anmoins
étais
Etats
##rente
offic
##rits
complément
##her
conj
critique
Hol
effectu
##olie
statut
options
appréci
ouvrage
médecin
Lé
nommé
contempor
fabri
##vité
SE
épisode
céré
événements
Gre
Intern
##ica
artistes
##rup
véhicule
##illons
aéro
penser
Er
gagn
Club
espagn
serrure
Suisse
envis
perdu
totalement
spécial
perdre
théâtre
désign
guide
ball
##isant
intellig
##ource
fall
utilisés
pros
propriété
##agog
##istant
Bret
Inst
Li
rendu
peuple
##quées
apport
agréable
expression
commencé
alg
continuer
limite
banc
fisc
japon
##chet
vra
jau
soirée
##illant
nouvel
clé
remb
budget
partout
médias
château
alimentation
##onnées
##ultés
hyd
...)
##ga
indisp
responsabilité
Marc
##glise
##timis
##angé
verre
diverses
##eureusement
arriver
Den
protéger
##pt
Découvrez
marques
Plan
##tements
Qu'
lou
milliards
britannique
signifie
espèces
##cie
circu
dollars
Grande
signe
mut
fron
excellent
appelé
##inique
augmentation
All
Grâce
contribu
volonté
Liv
recherches
##gg
avantages
pouvons
matériaux
Guerre
##umé
kil
##pri
##PS
riches
##cy
##apes
fant
crédit
##AD
bibli
devenu
vingt
mand
##lés
toile
filles
por
éto
entièrement
##cter
##aye
apporter
Toul
##ng
participer
annoncé
ryth
vision
bébé
clair
peinture
exis
élimin
##ham
bain
poly
phénom
midi
province
org
Recher
##sons
##fic
alli
##urb
fabrication
réduction
final
##na
paiement
##tienne
Nicolas
oeuvre
ouvrir
profonde
fournir
méthodes
##onnée
##duire
chaîne
##heur
manger
##ott
march
##éber
utilisant
interpré
colon
garder
accro
os
##onses
engagement
Max
participation
retrouv
Groupe
recevoir
Fl
distribution
##sh
aurez
sauf
he
signal
acqu
lance
##seille
attendre
syndic
##ataire
Table
patrimoine
frère
##onal
Russie
plantes
AC
Aj
##ated
efficacité
faite
engage
populaire
pieds
##cent
##ouleur
##oile
liens
recon
honneur
##urée
##OM
iP
épre
compter
terres
##êtements
Po
sources
décor
conform
durable
##oriz
méd
proches
Gé
chat
dirig
exac
III
entend
volume
##…]
échange
##iels
artiste
##ômes
quantité
##ortun
##ms
##ja
niveaux
##ling
##PE
Jose
textes
détails
inscrit
human
côt
gross
fruits
Claude
vend
pom
ingén
bras
##ust
spécifique
Joueur
Oli
Net
investissement
##udes
ministère
enregistre
permettra
Premier
anciens
café
soin
Maur
puisse
composé
Mis
titres
[…]
professeur
##onique
fera
Pi
Toutes
Rich
élab
J’
##berg
allez
##dy
vidéos
faits
centrale
Dr
Donc
Mod
avoc
carb
##omas
Alexand
justif
futur
coupe
affich
poser
visage
électricité
fête
##ésie
Sav
privil
plateforme
Mc
coop
Top
toutefois
échelle
ro
mén
soup
Président
pouvait
favor
vole
programmes
Inde
her
##ye
##annage
construire
up
fonctionne
actuelle
espaces
célèbre
impossi
diagnos
auteurs
moitié
solid
##za
##ull
##ématique
utilisée
recru
restaurant
appareils
régions
écriv
maisons
élevé
##dienne
##onyme
mondial
bient
indique
indispens
unité
largement
parole
métier
émission
sociétés
musée
identité
probablement
payer
##tian
précise
télévision
gratuitement
capitale
pron
##ologue
bloc
CE
lett
rasse
##onction
##atoires
##othèque
championnat
DU
##oter
communaut
olymp
connaissances
Reg
Londres
mélange
Att
],
radio
souvenir
influence
fichier
exercice
optimis
Techn
##ateau
##orp
Certains
constitue
informatique
##oirs
Bour
are
afric
révolution
##osse
goût
promotion
##auff
rat
preuve
sciences
sociales
##veille
officiel
Env
##inement
Mess
canadi
Ouest
##udio
ouver
##ériques
conscience
riche
minimum
##lém
évaluation
Sar
##tiens
délic
opérations
##issez
plomb
essentiel
profil
##gi
##chée
comportement
reb
forc
##iration
Montréal
##IG
AF
bro
##rict
complé
##semble
##ètes
AN
annon
discours
music
européen
Trois
privé
condam
avantage
monu
##onsieur
tenu
présentation
Pendant
Cy
You
alig
attaque
modifier
##ualités
pharm
belles
électronique
trouverez
économiques
hésitez
original
importants
chanson
experts
écoles
hos
diver
infra
consiste
humain
##ted
tellement
Royaume
difficultés
machines
Alg
liés
that
complètement
##ount
Association
##asser
magasin
énergé
Parmi
Seu
encour
pert
montrer
##ya
collabor
esti
éclai
considé
huit
classement
bre
Vict
sch
apprentissage
##IV
Loire
paix
pont
meur
kg
italien
Dép
étoiles
##alisés
conseiller
équipements
aéri
##zy
##rad
dispositif
Ven
disting
Fait
##ventions
Vi
##videmment
contient
Ligue
##ATION
susp
réglement
Institut
collaboration
empê
##ings
ém
Service
##agée
entier
##agnes
##ourt
utile
##inture
existence
locale
préparation
tient
augmenter
bénéficier
Ke
UN
écoute
eaux
espère
froid
sing
##chi
privée
garantie
Henri
tiers
chercher
dat
provo
bleu
##iendra
##ound
My
SA
autorités
concert
##terre
Laurent
##rif
ES
supérieure
Kar
plage
Amérique
radi
chien
Bur
Van
bientôt
héber
##lications
capable
profond
var
Cli
##ataires
Bibliographie
Inform
photograph
réd
##oureux
regarder
##istique
##ani
##gements
russe
lait
longueur
impli
##don
inqui
##agers
##raine
Gi
##MS
##igneur
##orld
##oncer
##itations
AP
essayer
domaines
##rise
FC
esc
plans
FR
beauté
AD
opportun
ram
inscription
CN
entendu
Prov
##oulin
magnifique
absolu
##ael
Tou
##verse
##èche
exten
réponses
voici
mises
##cins
acteur
##MENT
dispos
kilom
évo
Wal
requ
propriétaire
Maroc
Sau
jusqu’
##gues
lac
présenté
atelier
décis
calme
prévu
rencontrer
han
mam
demandé
marketing
cru
hypoth
anne
synth
fichiers
quas
mini
m’
Marseille
gérer
vaut
diam
##dent
Dès
réserve
cheval
##ora
étapes
##tenant
modes
''
##eth
mix
rav
véhicules
quelqu'
résistance
œuvres
Méd
##ordeaux
acte
Angle
tenir
ciel
##lec
##bo
Camp
config
##rass
servir
complexe
constat
AU
Oct
démarche
pouvant
Lab
sujets
touche
##édie
masse
Bretagne
##icien
##hors
compli
##outes
lancer
##cemment
festival
erreur
##ols
IS
Terre
proven
DES
##rick
Jan
construit
Mi
##QUE
participe
Page
Personn
##mann
lettres
##sé
##azine
maire
législ
convient
fleurs
statis
tap
Code
naturelle
étranger
discip
##résil
pét
Monde
candidat
plat
revient
##esti
passant
prises
prol
morce
lyc
totale
##tise
dynamique
Sén
faisait
performances
Cong
##itt
technologies
pourraient
Haute
##jou
audi
Ess
critères
##igueur
##mber
salariés
Mil
AS
massi
fib
blo
coh
Thomas
débat
##han
##liam
Sainte
André
##lusion
##érale
##isent
##je
combin
biens
##df
##reurs
Organ
##ror
ON
intéressant
impos
équipement
Long
invent
accéder
actuel
##fort
inh
##sif
côtés
recette
ouverte
témoign
appa
fun
Hotel
retraite
rang
faute
##iale
pédagog
Part
scolaire
spectacle
##ntemps
##licité
%.
aventure
##vo
##ctor
##èce
##rétaire
Bre
préparer
achet
##uxelles
Sous
suivantes
chré
Joseph
littérature
##yez
##tisme
baisse
noter
##bi
révé
Lang
sert
banque
sable
Dra
procédure
##my
##gon
étend
##igu
##times
bonheur
envoyer
aéroport
associations
ventes
boutique
Santé
##rén
##dom
considéra
revanche
commercial
##illée
Pra
##ramme
changements
publication
diz
Bu
Commission
##tig
précédent
##icher
perspec
fondament
ressent
Black
##ko
Sou
faudra
##sis
vieux
##dicap
Festival
consulter
Seine
##veillance
Toutefois
couverture
##ji
##inaires
proposé
france
##ords
humaine
fini
##ancée
pur
adress
Tar
##azon
ouvre
partis
génération
mig
lesquels
Sol
##lien
##oudre
content
écriture
issue
échapp
##itch
##xes
artisan
maître
##AB
Angleterre
particuliers
Description
##ogne
équiv
définition
##réh
CON
armes
##nés
fortement
stress
##illez
William
obligatoire
déjeu
convain
tôt
estim
##itime
##éléb
moments
dehors
défaut
##TS
principales
##iend
hier
don
Rue
talent
##ject
##iciens
établissements
financement
revenir
faç
virt
##CO
ajoute
liées
Bri
émer
accident
décide
Bruxelles
patient
devait
contrib
entrer
aci
Bernard
interne
écrire
ore
expériences
Rome
rub
résid
Homme
expl
lancé
innov
suit
##nom
apparaît
Uni
viol
##chez
##ctes
mainten
compétition
##uclé
entour
##illy
chinois
##adies
##bl
##éroï
délai
##pin
marchés
##iversaire
##unal
##ake
financière
multiples
diffusion
##oue
##allée
rappelle
Cer
civil
Eff
Norm
smart
##aissent
##rome
progressi
##IRE
##ita
##liss
bataille
née
##uits
Ah
Sep
importantes
vérifier
marchand
jeunesse
##olat
##volution
gare
chaud
lar
mac
has
déplac
retourn
##landais
##ignon
##gées
facteurs
Isra
conduit
Serv
Cre
fus
Afin
avions
impossible
##rimé
Ensuite
##heureusement
ind
climat
##aster
National
passionn
émis
MA
fournit
cellules
##utri
Culture
produire
##neurs
Dern
immédiatement
mens
May
##iat
Hu
conférence
##IX
islam
hôtels
mou
##tm
juge
##arc
##cepti
##ulaires
prestations
expliquer
participants
science
animal
major
crée
accessoires
cité
pêche
décrit
distin
empru
sembl
suivants
langues
##quie
##ala
##née
##aff
mauvais
conç
##aments
vain
présents
Parc
##ére
##iness
opposition
ox
accompagner
renseigne
partenaire
##ctur
avion
supplémentaires
él
Sant
pourront
chem
adj
##ourir
revenus
voilà
Mét
Bordeaux
Chap
PL
optim
institu
civile
logique
##utés
surp
AM
beaux
##ueux
téléph
réception
batterie
Bat
récemment
##bres
Dém
architecture
mâ
Quelle
règle
élu
##DI
privilég
déte
Cath
(...
##irit
Ara
cycle
viennent
Mme
##riel
normes
terrasse
intérêts
##rets
veulent
##vin
Loc
institution
épouse
enne
##oll
arts
correc
domin
##cession
négoci
adapté
##ico
##nis
appari
tenue
obtenu
GR
front
##ification
Fe
##équ
labor
pous
connais
##érapie
ambiance
International
disque
élève
##meub
pâ
distribu
spécifiques
##émique
##roits
##veurs
Let
originale
len
pau
##ban
Moy
Cher
victimes
spécialiste
Georges
Cin
rejoindre
vêtements
mentionn
##FA
oublier
certainement
##tivités
Az
amen
Tru
##vaux
impres
simples
essai
alimentaire
revue
basse
##isée
Malgré
##tenus
conséquences
milliers
Sit
rejoint
##vidu
pouss
##outé
Plusieurs
signific
##ielles
responsables
##gin
places
math
fit
central
Jés
télécharger
##uves
horiz
Math
Toulouse
capital
chasse
Gab
tab
personnelles
##die
Bois
##gner
##ium
vélo
entrepre
cadeau
recettes
bio
##IER
Neu
##allé
scientifiques
tarifs
montagne
vaccin
##VE
##més
##no
##lois
traité
Voil
recours
LES
##iennes
maladies
van
allons
Log
céléb
Ham
Ça
Politique
représentant
chapitre
rand
fro
##ish
##chir
mouvements
expos
portée
noms
##agnement
Tor
handicap
locales
Fré
réunion
##osité
Austra
formations
??
puisqu'
Première
évidemment
##diction
démont
Tag
débar
faveur
##olue
champion
morts
Os
##ray
##cou
##pit
##OC
rêve
arrond
Jack
Quelques
##III
publiques
stade
rapports
corre
##dement
offici
paramètres
gl
Nov
##omét
intit
acier
résidence
allait
indiqué
Enf
sel
réflexion
reçoit
furent
Ur
oise
##aph
][
Alpes
situations
Prog
historiques
cart
jet
##ommande
télévis
##ématiques
Église
##aming
circulation
##riez
##ussion
câ
rig
Syn
##cons
agents
candidats
alco
##IM
##ricole
esth
##umer
##und
centres
##cia
##ics
##êtres
Vers
Rep
anniversaire
créée
sentiment
voitures
actualité
you
##alend
navi
rythme
rappro
##étiques
Meille
possibles
considéré
réalisée
##riers
individu
télécharge
commission
division
décid
##ool
##ries
déjeuner
rivière
chaudi
remise
artistique
##ialité
humains
boîte
sauve
sold
échanges
remont
feuilles
PRO
dépannage
Christoph
Femme
##adémie
stockage
##égal
chargé
organisme
Sac
stre
trouvent
capac
##érir
Mach
forcément
Kh
annonces
Quant
##lité
##irus
lesquelles
##avier
comptes
hyper
portant
serrurerie
it
destination
Vinc
diffus
ign
Jésus
##orb
apporte
tests
IV
##illages
bâtiments
adultes
énergétique
gri
fenêtre
vote
logiciels
##ologne
roule
bét
bilan
heureux
asp
##rin
Assemblée
nuclé
emprunt
Hy
chiffres
diagnostic
maintenir
##uste
##kin
organisé
##aptis
soumis
arrêté
sols
Sil
##azz
estime
Alain
musul
standard
efforts
accessible
##oral
séance
##ny
structures
##tières
expé
##aign
##blement
danse
stage
déterminer
messages
scul
Mul
forêt
Ast
profit
##isez
ère
murs
compati
pensée
##édération
##imes
Apple
Algérie
équilibre
développé
Blanc
fleur
##xt
##hone
citoyens
intermédi
dois
éche
kilomètres
envers
##ails
visiteurs
réparation
el
Twitter
restent
printemps
Ap
##atrième
Star
Bonne
AL
collectif
##quipe
refus
##illé
##dici
joli
missions
flux
juridique
##anes
potentiel
Hôtel
##entation
Mot
flu
##roniques
Cov
##curité
ultra
partenariat
clairement
Sw
conséquent
incl
cout
composition
Profes
##uf
sanitaire
Py
affect
casino
hôpital
##lisation
chir
utilisées
surf
incont
remplacement
surv
##ush
##asses
Ir
Avis
installations
constitution
##onf
far
reprise
occident
rur
suscepti
adapter
difficulté
nourrit
demandes
chiffre
croire
James
décès
##dits
obtient
faibles
agir
Côte
##pare
##tenue
rose
adoles
##oton
Cr
poursuiv
Point
joué
Ray
recueil
Source
connexion
convention
visiter
##él
auth
##aisser
##mbler
##iées
examen
##mond
Commentaires
##gar
##view
SP
##FF
repos
élection
##ii
traiter
Dist
##quide
ence
oppos
##lige
innovation
coin
Utilis
.-
##ike
Radi
Orient
amélioration
contes
Aux
agent
plastique
déchets
démon
veille
organisations
indispensable
##ual
aper
Richard
théorie
##bilités
##êque
propriétés
identifier
Lac
##iverse
Antoine
##oulant
ber
sucre
nettoyage
notes
sympt
##ties
##aies
frag
##ator
grec
passion
Angel
Pan
Produ
arrêter
Chambre
adore
hausse
##grédi
conduite
violence
Noir
divis
lin
réflé
transpa
Mas
hi
élég
##ierres
surprise
cancer
##ington
salles
confront
françaises
##OP
##ellect
matchs
sérieux
vérité
déri
Lég
coûts
##opp
inclus
Mars
mol
Musée
##onnés
Daniel
Brun
##rime
assi
##ago
htm
info
##aitre
enfance
connue
##ato
seuls
##roir
##gra
cos
organiser
##ôts
##tiss
étage
brû
Play
Iv
quotidienne
crème
virus
situe
mauvaise
compéti
secondes
accompagnement
Home
devoir
aid
Résult
Répondre
Lim
Bay
transformation
Rapp
Dés
blanche
sinon
normal
##vées
territori
connaît
Ouv
harm
attribu
##dir
%,
retard
##aur
conçu
initiative
Fam
subs
Moi
récl
##chat
dimension
reli
##ba
Victor
lune
limites
##nant
Sm
médicaments
corp
##tures
Emman
Monsieur
bis
##iki
Men
rh
##chées
opin
inj
trés
##culaire
fournisseur
rare
circuit
agriculture
##rol
this
neur
argu
employés
automobile
absolument
préal
!!!!
##eries
notion
ench
apparition
Pau
##stances
vivant
éditions
rénovation
guit
servi
##xique
##usses
Analy
##édé
Photo
Flo
phénomène
Pos
comité
Ceci
appropri
##ht
Ble
file
UE
patron
prison
transp
réduit
électriques
faciliter
arbre
rejet
transfert
##SI
moindre
entendre
##ution
Bru
##ulée
sil
##aug
##way
respecter
pel
revenu
renv
##iteurs
Forum
Albert
secrétaire
essentiellement
Leur
diss
##aler
Rest
mété
Autre
décoration
inconn
chercheurs
affiche
légèrement
ge
VI
échant
matières
demain
animation
arbres
médecine
##ismes
chaude
##agés
##ationale
supplémentaire
confident
Mur
iPhone
Guy
Atlant
Maint
actifs
critiques
indépendant
parois
##tissement
actes
épreuve
capacités
reconnaissance
##ias
extrêmement
Amazon
militaires
lende
Date
##off
---
##ower
soutenir
Covid
##TC
éloi
##lia
externe
stim
Éc
abb
aliments
modu
logements
PAR
barre
poursuit
gratuits
##mn
fonctionnalités
intellect
##chage
hé
traduction
portable
École
hydra
judici
%)
Peut
demeure
caméra
pointe
ceci
Israël
##rosoft
##uaire
plant
##amin
autonomie
was
populations
exemples
cuir
âme
Rem
vaisse
pare
Red
##naires
dr
attent
fournisseurs
##pel
##oiff
transition
Android
relativement
journaliste
Tunis
##onse
Guill
couche
liquide
Pap
manip
coups
doig
actif
##acie
tissu
vise
Sign
##den
révèle
tourisme
monn
aqu
CA
infrastru
proposition
croy
bén
naturels
##érapeu
réaction
concurrence
légumes
chute
tente
spati
hon
formule
myth
jaune
particulière
déclaration
Chez
##orisation
Déb
Faites
remplacer
bouton
Vos
Michael
##alon
secret
parall
Faire
isolation
récomp
individus
Olivier
accueillir
appr
##box
News
prote
orth
racc
truc
voyageurs
War
Mos
##TT
##als
vice
luxe
nécessité
inclu
##liste
planète
spirit
expertise
belge
sexe
expert
cong
coll
lendemain
ath
réalise
auront
douleur
Ép
canton
##istan
pdf
règlement
##mant
proposons
appliquer
##atures
obs
jamb
représentation
##hn
catégories
renforcer
compréh
World
glace
##mosph
##érieurs
attentes
incroy
##erai
Prin
Argent
immeub
restauration
HD
secteurs
path
ling
intégration
irré
noire
faux
donnée
quatrième
enjeux
aménagement
Do
##lon
foi
##RES
Stre
mg
charges
Région
CL
Hom
##INE
lecteur
montré
##outh
##entement
ateliers
autorité
Tom
émotion
artif
##uk
##uée
Sand
établi
perf
##venu
fins
Gir
##aj
Mel
épisodes
exclusive
Journal
accélé
coûte
##ally
##leur
retrait
quin
réussite
seraient
établir
##GE
langage
Denis
##itement
cabinet
Développ
jui
##itaine
former
remporte
pierres
##tiennent
##agram
Don
pure
##erte
##aill
principes
chocolat
allant
gent
##ublic
fid
Ev
##rans
équivalent
habitude
Christian
boul
développe
hu
Pourtant
##queur
peintre
médecins
sugg
##ield
reprendre
Tre
plaque
Voilà
##ôles
avocat
classes
##inium
##UL
##miques
Lin
ly
parfaite
Nor
Rev
##lets
piste
Château
##gen
##quin
navigation
##alie
devra
##ami
enrich
héros
Fig
Celui
##atisation
vigueur
espagnol
pollu
offrent
bron
élus
Berlin
escal
sommet
uns
pétro
Belle
utiles
CP
Ni
##diens
Sté
territoires
composée
##rants
EUR
vaste
##heim
prennent
coff
Amer
Bourg
##mie
parlement
inscrire
chacune
dure
gout
##oï
myst
nécessite
studio
pla
voulu
doux
##isés
##rest
japonais
tâches
rembour
##ocie
##TA
poudre
##QU
présid
thermique
##iterran
mandat
##alendrier
grave
lié
décisions
bouche
Lun
frapp
##itz
conséquence
attente
Ec
active
Rel
Agence
néanmoins
##mestre
chante
alcool
CR
Juin
##lot
meurt
##adis
fati
travailleurs
my
traditionnelle
doc
Nouveau
institutions
trafic
pilote
modele
conserver
##aro
Provence
viens
##illets
dispositions
Comb
tranqu
vraie
##mpe
color
Jul
##struction
épais
news
emplacement
fame
tenter
##ires
**
arrondissement
Asie
Hum
##criptions
rédaction
atmosph
suisse
City
concurrent
bomb
devraient
##dique
bruit
##mun
CC
exigences
##ernes
exactement
prolong
tombe
instrument
dest
séries
invite
Ros
PDF
Nav
exécution
propriétaires
##agent
culturel
sty
métiers
profondeur
troubles
Pont
IP
éduc
Supp
dirigeants
tur
Services
fréquent
automne
##IA
##tell
Empire
allemande
garantir
extension
box
occupe
reprises
financier
One
merveille
Moyen
propor
##illers
associé
adaptation
auxque
porté
transports
Rencontre
brut
email
tension
##êtement
##uminium
vécu
maîtr
emplois
##aisons
Patrick
coc
visant
dérou
côte
##grédients
possibilités
joint
définir
##cevoir
serez
suffisamment
océ
menu
intention
##ographiques
terror
conflit
##enser
out
nutri
pul
##inée
prévention
contenus
obligation
accueille
solaire
description
donnent
Mode
récit
égard
fixe
réforme
implant
réellement
Vincent
rédi
unités
##peur
##tendre
bateau
tomber
intégrer
SN
préoc
édif
##IB
racont
précision
personnelle
auraient
défait
évidence
sén
fol
signé
robe
boute
DV
Hor
combien
##ITE
remarqu
Die
Cou
effectivement
liée
##ep
clo
Télécharger
remettre
finir
appuy
Australie
solide
buts
Contac
align
affec
##___
problém
reconnu
##ycl
quitter
voc
enle
pne
œil
victime
monter
advers
déroule
incon
##ao
cult
biais
Id
recouv
meubles
batt
spe
##bie
gris
##conomie
termine
Microsoft
##TER
pauvre
ml
asc
effort
Vir
consommateurs
arrivé
hydro
fas
Eng
Diff
Actualités
##dium
##eck
Comité
effectué
Gren
vertic
##chon
lancement
universe
basé
pen
Recherche
George
essais
pon
ski
##allen
commandes
régional
Anim
magazine
vul
parking
franch
olympiques
clubs
surveillance
leader
##olo
accepter
aspects
oublie
Bus
rares
rup
##erse
Blog
transmission
impressionn
humaines
Lien
léger
douche
enseignants
##cha
Ib
rock
abou
empêcher
##peau
##ford
Parce
tw
lumine
financiers
##ón
confortable
devenue
Maurice
dram
Exe
graphique
appu
bassin
bases
accent
installé
Rog
parfum
##ases
Hab
##ali
Rose
diversité
##ouvoir
toiture
chaussures
##érées
plaf
):
assistance
Taille
pompe
remis
radic
##lish
licence
Francis
démén
dimensions
Arts
motivation
cost
Syl
##veau
enqu
Cab
Aussi
Emmanuel
tirer
populaires
cell
écologique
précisément
tester
Arm
Ep
gre
Bert
agricole
publiée
Autres
tradu
Classe
Théâtre
Pic
##iré
frères
axe
modification
gour
AB
mécanique
##asp
étrangers
vouloir
envoyé
nar
interro
##utation
proposent
réac
Brésil
Parlement
Dame
décenn
Guillaume
Rhône
contenant
neige
##del
dens
écrivain
html
##crits
Chauss
maîtrise
##lières
voyages
centaines
formulaire
report
rass
Nantes
délais
caus
déclen
##tics
EP
dépenses
Pop
##ruption
voies
catholique
##ieuses
angle
emball
changé
vib
##work
Hal
longues
##gyp
nul
##paravant
…)
CS
centra
Alexandre
statistiques
##CA
record
automatiquement
pluie
vou
offert
fermeture
dédié
##tinéra
Envir
acquisition
aimé
majeur
Syst
béton
laissé
##faits
##ommages
vendu
rot
Fra
savez
plante
résolution
Aub
coopération
##ANT
lycée
Fau
tac
Div
gras
Hug
tir
nourriture
Christophe
##ionnats
embar
déplacement
occupation
sympath
chansons
Auteur
auquel
Nice
procès
Blue
##olid
##œurs
##any
##chauff
##ciers
tort
Aw
##gr
Ath
RD
européens
Cop
américains
regroupe
Sk
gel
récol
##IP
sor
utilisent
Académie
continent
##illés
guer
bénéficie
globale
##tage
concentration
pain
scénario
tours
officielle
communiqué
commerciale
##comm
ouvrages
##isses
physiques
champs
##rob
##icité
##ussions
plateau
pâte
aurais
appui
##ulations
connec
variété
restaurants
##euse
sentir
ceinture
ME
classiques
charbon
philosophie
##lip
hér
fondée
courte
accus
….
SU
Num
Guide
concassage
proposés
##liques
Dub
regroup
plong
##ware
morte
##mique
mention
##ilation
Ger
Bab
métrop
accompagne
présentes
Gh
installe
MO
donnant
##lerie
Rap
label
tempor
organismes
épar
##rices
sportif
##gre
ordonn
##mph
excellente
Ici
chefs
##ife
bains
Ul
prestation
modern
##orth
postes
##ache
##ugby
ajouté
joie
Formation
marqué
tom
district
contrats
##étaire
Fi
semblent
##ona
##alisées
Mari
serveur
pomp
##raire
réag
bet
Haut
évaluer
mener
##assade
arme
Jér
déplace
plas
espoir
score
Place
blan
##mbourg
publicité
fan
Stéph
##aga
##istres
participé
comté
sculp
paysage
Déf
minute
fiction
Der
##mett
correspondant
réelle
tor
##erine
##mage
Radio
##ésion
impose
##ado
##cop
désir
mettant
Stra
diamètre
##arre
##stant
tourner
Hong
circon
Fédération
vallée
Cu
Fréd
##lan
fallait
##olis
Oc
affirme
interface
lot
venu
dépôt
Bé
Royal
extrait
MAR
flex
ressemble
##los
agricoles
puissant
résoudre
##inage
Disp
tâche
représentants
mang
##anda
Durant
thèse
mairie
CB
tribunal
interven
Cra
Retr
cliquez
superf
##bri
Moh
hommage
histoires
adolesc
fréquence
Chois
pire
limiter
montage
élevée
appris
religieux
Ram
____
##ottes
##omique
industriel
appelée
##ouche
esthétique
exempl
Orig
audio
##joux
dialogue
##érable
chantier
viande
glis
##èvre
Musique
religion
recommande
Riv
raconte
CG
##itées
reprend
rues
##oble
infos
----
Personne
personnels
anc
##ît
Cuis
éditeur
plats
##sière
fondé
##ero
##rains
député
Patri
présentent
##rières
Banque
##itude
émissions
lis
##ettes
personnalité
##éraux
internationales
##lez
Lille
##opath
##èques
souci
XXe
aluminium
pertin
étudiant
défi
fabricant
##ning
##assé
##ardins
Quels
Aqu
Colomb
numériques
laboratoire
fans
poursuivre
moulin
bibliothèque
Archives
indépendance
Gestion
fenêtres
protoc
récupérer
Conne
signes
occuper
troupes
répert
##the
fraî
##erver
##amine
erreurs
invités
Gold
AV
Vente
%),
Titre
Porte
issus
authent
goû
magasins
pouvoirs
courage
##orale
##rations
collège
primaire
spécialisée
nette
##tiles
Prom
symptômes
##rasbourg
##AND
billet
exige
##rase
chaudière
Dur
fiche
frontière
similaires
##icat
FA
##eni
décri
remplir
XIX
Catég
inférieur
##oureuse
intéresse
astu
##gy
##oline
##atch
##issait
##umeur
aver
anciennes
##fer
##ciens
classé
mettent
cible
Message
Nap
##trage
alimentaires
associés
##lène
musical
sommeil
Cur
Entreprise
##dou
quasi
qualités
Bes
Barb
##mans
autorisation
monuments
unif
##èlement
##AGE
##ota
publie
décl
étudier
quels
##oni
quitte
appren
(«
prenant
enregistrement
correctement
Soph
constituent
contraintes
##ophone
sté
Andre
affront
basée
intermédiaire
navigateur
compréhension
Eric
grossesse
découvre
bonus
##onnier
ride
grosse
##monie
débit
peup
habitation
##ffe
annuel
exprimer
prêts
conjoint
cle
dossiers
Hé
banques
##fe
!)
familiale
##ènement
orientation
##dust
Los
naturelles
trajet
Genève
##aid
Nature
médical
##aller
déliv
entraînement
actrice
travaillé
matériau
inaug
index
maintien
PE
cryp
vols
Portug
augmente
##OUS
infir
émotions
##ester
cesse
diplom
##zo
Livre
destru
Pologne
acheté
relatives
visites
##ouleurs
##èses
accum
préoccup
appartient
adaptée
Rouge
Lar
Bref
spécialistes
clic
##ns
Fort
SC
Consul
amoureux
tournée
surpr
D’
ine
éth
îles
Rock
achats
Aucun
Land
##iger
vapeur
altitude
##ited
soud
##ness
office
précip
##MI
##ouer
##eng
adulte
répé
arabe
##igner
##fre
placé
use
Inc
détru
simplif
Big
endroits
Pa
urban
##erve
arc
Pé
Directeur
discussion
Peter
Maintenant
##eroun
Amb
moteurs
soign
Lit
intérieure
coiff
énorm
différente
##orge
tira
appeler
amélior
cyc
Gau
Arn
Open
It
propositions
##pellier
versions
favoriser
saisons
##agon
##iliation
maroc
dégu
##dine
##lence
Lum
pand
##mise
##visions
coul
orches
conduire
More
positif
Vidé
##èdent
##idation
perspective
max
Nations
UR
traduit
fur
West
Certaines
smartphone
##ida
fréqu
difficiles
Outre
carbone
soldats
deb
Rol
Luxe
bag
spéciale
gagne
fir
##rém
##dies
cens
##nam
Lis
rentrée
cum
Macron
chronique
clientèle
océan
mille
documentaire
##seud
sourire
rappeler
##unt
##deurs
Strasbourg
maintenance
##iette
effectue
auparavant
mobiles
tournoi
##uts
##UN
royaume
ong
##marès
renseignements
démocratie
cylin
traitements
semi
##ating
générales
Sing
##vail
réalisateur
courses
##vet
Seconde
bref
représentent
##OG
coach
gro
##ied
Lot
DVD
To
collective
menace
##onav
sin
renforce
quart
cuisson
inverse
arché
.»
interdit
secondaire
##ariste
Phil
descend
réalisés
toucher
##BA
quelles
évac
susc
télévisée
Tableau
intégré
supprimer
export
jolie
materne
assist
Spéci
protes
##rité
configuration
confidentialité
directe
aigu
##oyez
fêtes
écart
##iler
thèmes
##ology
incontourn
##inf
imprim
rupture
Yves
##èvres
Dam
québ
feuille
signature
interprétation
façade
professionnelles
Éditions
Bure
intèg
clin
envoi
visible
réussir
progrès
cerveau
médicament
inu
Mise
immun
justement
##itants
pensez
##kh
##sier
##rien
facteur
calendrier
prévue
##aya
canal
Sab
immig
culturelle
Imm
lecteurs
Poi
##ular
mobilité
poule
##inos
superbe
Calif
##cial
Franc
Mou
écouter
Normand
##ockey
##urgie
internau
USB
énorme
recrutement
senti
accompagné
Sciences
Attention
Dar
oxy
concl
chiens
dot
recev
consultation
modernes
sympa
Type
communiquer
maman
Press
tome
quartiers
Pou
dommages
rond
analyses
Résultats
cultures
tire
Frank
organise
##ressions
ingrédients
communautés
rouges
Dj
##rolog
Frédéric
considère
##wood
investir
Mah
Hel
architecte
voulait
Marine
your
féminin
##ignons
enceinte
existent
mass
##élib
King
spécialisé
montrent
Julien
exercices
cib
meme
Loi
té
##pent
lutter
proportion
##astroph
utilisez
##awa
Miss
judiciaire
contrôler
Cri
égalité
oubli
municipalité
AFP
opinion
nov
ger
intervenir
plafond
éclairage
Suite
allé
bancaire
secondaires
EX
morceaux
destiné
stratégies
industrielle
italienne
MP
courrier
NE
Park
repose
Néanmoins
hypothèse
fondateur
amateurs
new
attendant
élar
von
Champion
Fondation
##ild
garage
offrant
insuff
asi
rémun
hasard
mit
provin
Simon
recommandé
##ese
relève
##lève
hébergement
décret
archives
densité
Nombre
##osh
##ulte
##feu
économies
intens
Retrouvez
##VID
climatique
##cesseur
Pres
pistes
##ativité
billets
clôt
carré
circons
naturellement
##esp
Aug
présidentielle
Championnat
moto
vins
Retour
Salon
efficaces
ru
look
##inter
##urance
adjoint
intelligence
Resp
prince
##cope
Uk
glu
Ques
loisirs
salaire
déplo
nucléaire
##ava
##vén
artisans
organisée
broyage
Cir
Ha
TH
COM
degré
intégral
Général
Là
vendeur
itinéra
optique
Office
complexes
constitué
officiellement
Californ
pic
##tendu
Où
##udiant
dévoil
norme
fortes
remerci
Europé
Gouver
##din
tendances
européennes
Barcel
approf
terminé
Wi
étrangères
saur
monnaie
Elect
eut
plaint
catalogue
fuite
AG
poign
Mark
##onnant
##ueur
Direction
latin
TE
dite
fonctionner
##onavirus
échec
##itions
##nie
Han
tourne
volet
ben
Rien
retirer
amende
humanité
##ça
##IF
Wash
dents
dommage
Personnalité
villages
Prop
gast
liqu
cadeaux
##estes
Bor
SS
interventions
lead
pleinement
crist
décro
étique
sports
etre
##aves
Vit
Artis
souvenirs
##ouc
littéraire
prior
Historique
inéd
ens
déclin
##ômage
##chette
marine
bureaux
range
Catherine
dispositifs
malheureusement
alternative
partiel
masque
##orph
##acte
horaires
souver
##autés
##tons
camping
##gypte
charme
Beaucoup
##RS
collaborateurs
Gér
cord
##orith
exéc
##mm
sorties
##URE
.),
similaire
prénom
clinique
procédé
deg
##onald
téléchargement
séances
impôt
Anton
##prés
beur
Montpellier
##eil
##issons
tub
##stac
anticip
libres
##uge
Série
vues
Celle
##ury
py
##hou
##rench
satisfaction
Arc
régionale
solidarité
acide
##lections
cultiv
annuelle
##cts
##ily
##CT
##ographe
##ultan
##érité
USA
précédente
compose
lâ
déclare
fabricants
##riche
Word
Appar
palais
Pet
##stration
cérémonie
##olet
##DA
##drait
fusion
sauveg
ombre
Acheter
interview
progressivement
engager
cache
oli
routes
collectivités
montée
sœur
Meilleur
apprend
scolaires
transformer
Présentation
souligne
panneaux
comparaison
contribution
Carte
##lable
##ween
siècles
oiseaux
cass
Anti
musicale
##érents
##ody
placer
confirme
assuré
##atie
Améric
tapis
dorm
géographique
investissements
Objet
dépos
Ri
québéc
barb
##haus
Bob
catastroph
implique
déplacer
majeure
résist
##ener
»)
perp
Dominique
##wn
évoluer
internationaux
Coup
##icale
provenant
##ootballe
autrement
préalable
repris
Marne
répondu
%).
nat
sév
Encore
##PN
relie
##ison
cous
internes
faudrait
Quelles
chances
diplôme
abus
Disc
manifestations
##yo
##cif
modifications
Cliquez
##cée
global
priorité
défendre
idéale
##com
Grat
formé
##LA
tele
disent
garçon
Design
##veiller
##rénées
Bill
thérapeu
dessins
By
streaming
explic
soucis
consacré
##glom
Île
##riser
respectivement
##asy
Ly
##guer
QU
Bac
piano
médicale
délé
souris
##esses
##ifi
pack
elect
##mentation
profession
capitaine
Album
##ANCE
Tags
##neau
soyez
paroles
tut
empêche
écrite
expliqué
Tit
prévoit
##cient
maît
Administ
avanc
produc
enn
##vard
##erture
##fa
ciment
million
applique
sollic
Instagram
interrog
##ho
grille
##SA
##ican
limitée
entraîner
Toujours
vérit
##lète
adéqu
désire
Géographie
##atin
nez
René
remboursement
tuy
LED
Madrid
équipée
louer
municipal
exclusivement
compétence
PH
forts
croix
pandémie
incomp
maximale
##entions
silence
pes
conseille
chaleure
isra
Croix
Trip
chers
universitaire
tonnes
connus
##NA
réclam
##dire
rencontré
réfug
intitulé
analyser
Disney
##UM
Fiche
permanent
data
Madame
inquiét
##col
##ams
:)
dates
orange
Camb
Transport
états
##load
abonnement
connecter
Gl
Ajouter
due
députés
fruit
##illot
Oh
observation
Note
invité
Sole
##ouf
parlé
coton
contribuer
##tification
Indust
totalité
motifs
##rég
Green
##lissement
présentant
financières
sovi
sauver
Pen
##ancy
##cidents
Cit
équipé
comprenant
POUR
intervient
##ARD
différen
Tunisie
différences
repar
journalistes
##lisme
##aco
blancs
annonc
astéroï
sensibil
épau
##oga
##tième
remporté
domes
évident
observer
##êter
##chons
entraîneur
##irt
Grèce
Washington
AT
frontières
##quième
##rak
doub
##onniers
##MC
voulais
spécialement
discuter
stratégique
humour
Mexique
photographie
contrairement
attrib
parallèle
infrastructures
protéines
vivent
Pyrénées
chron
métallique
Afric
retourner
procéder
réalisées
Lor
Contin
prime
pav
pertes
Ari
Jon
cf
exceptionnelle
##chen
certes
lent
arrête
##ank
##wer
informer
##endie
##alence
nationales
atout
sûre
##sive
collecte
devons
##lix
Projet
extraord
Cant
##abeth
urbaine
influen
##lies
commen
Organisation
facture
réservation
Ate
comte
compét
##ereur
##van
Not
##pro
causes
Sinon
aides
anth
codes
assis
épr
Location
indemn
reconnaître
réserver
adaptés
Leg
Distribution
##ilier
Made
dangereux
##lesse
incroyable
forêts
chômage
kit
poche
seigneur
couches
##cière
pousse
##lette
conservation
Marcel
##ictionnaire
flam
cog
fum
rembours
Jeunes
tres
débuts
fine
désac
Cours
PR
réform
atmosphère
Mass
sk
entrepreneur
comparer
introduction
deviennent
parl
proposées
modalités
##rè
Master
écar
rentrer
cla
composants
connect
##tible
disant
monument
Font
##titudes
Père
Spe
##partement
célib
Dét
attaques
Gard
Rece
Contact
duc
##rus
finance
So
immense
poisson
sensible
Turquie
euro
Vendre
grav
collègues
Dernière
mérite
dizaines
essence
Seigneur
guitare
souhaitent
##ueuse
Mr
producteur
paraît
desser
paysages
dor
##jan
(),
motif
démocratique
Trump
périodes
Caractéris
##éen
plur
polon
branche
immeuble
constater
Ak
rubrique
raisonn
considérer
Far
dose
Cost
##ther
normale
##iro
##melle
Nationale
accepte
##itage
producteurs
##utée
Ligne
##romp
SO
##jon
verte
##oub
algorith
convers
canadien
##ierry
##odie
environs
CF
##érons
##geois
Tok
##tige
légales
Jusqu'
positive
minerai
Flor
##hip
sèche
chevaux
phrase
répartition
##isées
bénév
diab
Rennes
Alli
traces
instruments
Ceux
éché
##adel
Free
amie
Dre
procédures
.).
Pascal
Développement
médaille
Classi
particul
corrig
ambassade
tuer
ethn
préfect
commerciaux
sensation
inflam
Maria
Nath
Mam
bulle
Magn
coute
Trib
Sénégal
Matéri
Affaires
session
DS
rab
,...
inse
##ILLE
##ANS
recense
##lines
Bureau
##onnais
maîtres
##lits
have
EDF
Olymp
combus
aven
citer
claire
opportunité
##formes
envisage
panier
Vienne
Tel
recommandations
##inés
##gué
Petite
interv
);
##ologues
privés
Wik
évêque
fiable
industriels
har
systématique
Jour
carre
##ILL
dépasse
Év
périph
préféré
employeur
Ra
satisfait
remer
Sun
horm
défaite
##giques
##ople
bronze
accessibles
gren
##ître
Henry
Tex
escl
##fication
back
tenant
???
management
Cast
##œu
Sports
Isab
finit
##erb
##quait
trente
puissent
promouvoir
programmation
##istiques
##oué
##ena
##ua
budg
beurre
Iran
##rac
star
COVID
Fri
considérée
scand
synthèse
abri
variable
jugement
Rod
sure
##oto
administrative
Roi
PD
amus
##abilités
##agées
##mat
laissant
obligations
poissons
##sen
##iseur
ronde
Bruno
pensé
Gérard
##so
##ingue
trait
Angl
qual
alé
play
essayé
ressort
Chaussures
traditionnel
##tnam
##oriser
##tenez
Cook
##Ie
Sécurité
This
dizaine
hygi
##stance
couper
##omes
##ula
Livraison
transmis
Win
logo
##aa
##stem
aire
##ulsion
sportifs
chou
titulaire
soul
##rète
candidature
commerciales
adopter
vague
Cuisine
Out
were
scènes
Aur
raj
Test
menée
Las
extérieure
##illère
fier
Fr
az
défis
vesti
bactéri
Rab
chanteur
expédition
##ensive
##anth
Doc
##tins
prévenir
appels
compagnies
##TR
consulté
sportive
commiss
contacts
manifestation
sab
honor
tox
##ilé
##rovi
urbain
##ierge
étro
Pu
##fi
##illement
Normandie
régler
Dig
inte
##othérapie
##vain
obstac
##omo
chapelle
##érateur
métro
afficher
contemporain
##phe
CM
alent
copie
pseud
attendu
Femmes
Indi
baign
##lay
conviv
##commun
##illées
Chic
Ti
Droit
mascul
##ender
##uen
posses
Gil
acquérir
températures
rire
pp
##now
Bir
richesse
disponibilité
##iew
regarde
cime
apparence
trading
douceur
obt
##crimin
superficie
Sélection
secours
guid
Chant
Barcelone
issu
fédéral
future
fourni
Bos
##obe
abond
prépare
##illard
quête
compléter
savent
##raî
Arth
foc
##PA
propag
passée
Palais
administratif
représentations
Gro
##ènements
noy
Carrière
Jardin
incap
##ropri
Léon
##issements
agences
OU
##aki
##érations
Chef
apprécié
progression
Vin
Als
chirurg
tissus
terrains
enter
##ués
indice
démarches
Programme
##ootballeur
Portugal
dégrad
prête
habitat
assemblée
gagné
bri
Roger
##CF
extrém
##xp
Commune
rapides
autonome
réé
Boul
raf
##édrale
Révolution
##oliques
##endar
Réun
##ceau
##bor
Dun
##tisation
linguis
##outube
##wan
républic
massif
épaisseur
Ukraine
Autriche
##alisations
##ommé
mange
riz
imposer
apprécier
Broy
casque
Wall
aient
##ifs
trom
##atrices
enregistré
Salle
Mary
surfaces
##ulés
live
##otique
##ciation
set
foyer
satell
disposer
##aure
constituer
##dial
Moscou
##idae
attach
Lune
##conque
##set
portail
XIXe
Membre
##ize
confirmé
##ouvé
José
##alien
exercer
préfère
mette
##ativement
Var
ax
construite
cris
récente
Sophie
Thierry
menac
Mu
##ridge
paie
admis
procure
##vies
cadres
électro
paru
vieille
identification
bijoux
##urier
module
raff
estimé
blind
voisins
bor
ingénieur
MON
ste
##cheur
##veil
##ifier
pun
incendie
humidité
free
Orange
Alb
indiquer
repren
reine
##ald
##lore
diplô
proposée
Californie
##hy
capables
venue
hém
ratta
Concasseur
Sub
dédiée
##onnements
##bel
inn
hôtes
php
coordonnées
gê
navire
Gilles
retrouvé
stations
chimiques
colère
##med
envelopp
portent
disparu
Venez
symbole
présentée
##drome
règne
monte
filtre
fermé
déploy
##aker
ordonnance
mu
remplacé
BD
##ricol
nationaux
Palmarès
##uites
##erson
couvre
journées
comport
Espace
constante
intensité
gonf
Ple
Village
combinaison
golf
Système
more
Bâ
perç
##ience
##oxyd
atteinte
éliminer
Pie
illég
ballon
câble
amitié
apparaissent
rarement
coe
Auto
##enda
efficacement
définitivement
stabilité
Mun
tableaux
aimerais
commerces
RT
graves
jardins
press
##ason
##oz
passent
ondes
essentielle
our
vig
élaboration
Bleu
Pot
assembl
chaînes
gouvern
Ministre
circonstances
##rairie
##sible
étoile
Viv
Stéphane
##letter
susceptibles
Maj
entraîne
Temps
variables
Anth
recycl
revoir
orb
Brig
MS
Département
déco
show
##agi
éclat
##eum
union
forfait
intègre
##hous
Voy
positions
rugby
austra
Rac
vag
optimiser
Ze
réputation
Four
Hi
socialiste
sond
résident
##lem
admi
ralent
PV
over
##ernant
##arder
graines
limité
dissi
associée
inspiration
##lées
##nd
interpr
start
stable
Compagn
Veu
complémentaires
préserver
Mini
libération
écou
ya
détente
conférences
rendement
stric
##MO
oeil
##agra
Bud
milieux
enregistrer
adapt
Cameroun
salarié
comprom
attitude
BR
aud
Up
##îte
doigts
nettoyer
pilotes
astuces
EC
conflits
céles
dites
travaillent
cinquième
hôte
Voyage
##teau
Syrie
##aka
Durée
calc
##BC
##ctrice
proposant
##astien
ov
successi
origines
bil
digit
compatible
cercle
Création
Machine
Resta
Love
anglaise
TR
saisir
illustra
##orial
##cides
##asseurs
ventre
mousse
##FR
énergies
ic
représenter
Gaz
##change
Sams
impéri
Modif
addition
pédagogique
Séb
supports
investisseurs
contro
portrait
sièges
biologique
froide
mesurer
individuelle
édit
conclu
Autom
colis
néer
mène
Tim
##ova
Luxembourg
métrage
emballage
Tot
diminution
évoque
inférieure
opérateur
Us
attirer
précé
Emploi
Music
cond
ponct
fri
Revue
high
Eli
campagnes
internautes
dress
cann
laissez
heb
poésie
suivent
chi
chemins
##aste
hockey
tentative
longs
mira
encourage
##ogène
montagnes
compositeur
rêves
##coin
##dict
##hier
délég
one
remarque
relais
avancer
accepté
Partager
gain
word
cardia
personnalisé
précieux
Book
Achat
pouces
sph
!"
##ila
Angeles
Caractéristiques
##ommée
##cesse
occas
##eral
manquer
hal
précédemment
évolue
##rection
éventuellement
##PR
Lorsqu'
culturelles
colonne
procur
perturb
normalement
##rane
satisfaire
##sp
##raires
pharmacie
comportements
pape
fondation
Same
##UB
refuse
musulman
comé
conclusion
##auvres
dys
business
régulière
désigne
Game
réchauff
agglom
exceptionnel
PA
venus
remercie
##Le
liaison
mécanisme
graisse
concerts
Power
terminer
Annexes
confinement
##agiste
SUR
transmettre
##rimés
disparition
##lèvement
enseignant
##alth
##ING
mécanismes
profils
individuel
éloign
trésor
und
bandes
##mblement
OS
morceau
Atlantique
##jection
##ensif
roues
dil
ennemi
marin
Bio
comprennent
douleurs
engagé
##ward
prenez
##îner
avenue
trimestre
conseillé
Référence
Fac
Cheval
Mali
peuples
contribue
pér
violent
sanitaires
BE
impéra
romant
finances
prochaines
crimine
actu
futurs
témoi
Pil
##fil
Milan
Âge
distingue
##alestin
Informations
imaginer
##tenues
écrits
gla
Ry
compliqué
geste
réservé
cherchez
Tes
rendent
zéro
élevés
présidente
présentés
envah
provis
Pay
differ
Ref
éb
Nat
discipline
sentiments
Samsung
inclin
décider
réactions
randonnée
##oyers
##éch
respira
fameux
alentours
How
marquée
plages
destinée
décomp
##unes
rit
tablette
prud
bit
modé
Business
cig
##gène
récep
protocole
cuivre
##alette
tennis
royale
nor
arrivent
High
Langue
endomm
##yer
##alistes
##oulée
##bonne
magique
conformément
favorable
Ott
##tein
liné
Action
Production
touristique
Corée
rétab
##yr
publications
nutrition
algéri
collections
parvenir
##ardi
loup
lav
préciser
##cus
##cence
##lys
##archie
contemporaine
##dans
RC
vuln
##orama
varie
diversif
quasiment
miroir
impôts
##jo
posséd
douze
ferrovi
arg
fibre
##ters
législatives
armées
Concernant
##endo
clar
israéli
lave
Som
Docu
adopté
basket
Ener
affichage
pommes
##cast
pétrole
Ci
##uréat
uk
##cules
électroniques
##quante
indépendante
combats
devront
prévoir
paire
Ken
essentielles
Cos
##zi
jambes
Ministère
magie
sortes
privées
défend
Hall
YouT
pause
***
Ga
Ense
Irlande
##stre
conseillers
qualifié
particules
destruction
pauvres
job
épreuves
##yt
arbit
évènements
##culaires
American
largeur
apparaître
débats
tué
publier
Compar
extraction
trace
Tourn
##mper
##arko
coté
single
##allenge
linge
tun
Grenoble
situés
oublié
assister
Live
voudra
##issante
doctor
chimique
##conom
Fonction
préserv
Ok
Produits
régionales
Archite
galerie
Famille
##atic
dramatique
réglementation
ample
##alem
ec
lourd
cycl
##auts
##In
degrés
##pre
TF
##vait
prétend
##ee
##rible
discrimin
châ
##TRE
suppression
Sorti
Dol
##rot
gourmand
constate
découp
##ctive
roulant
##pection
Vé
fu
employé
relax
Commer
réfléchir
Germ
volumes
But
Congo
##acts
massage
séparation
Ball
échanger
Anglais
opérateurs
musulmans
Group
enfer
Environnement
Galerie
découvrez
Respons
oreilles
constructeur
##udy
tal
Front
##ima
brill
violences
Suiv
##quemment
conducteur
observe
Française
audience
jusque
plateformes
##feuille
soviétique
perfection
impré
vel
dépasser
duo
##ulteurs
IR
Football
assain
##dite
majoritaire
##quement
morale
malade
concernés
promet
compe
Bol
consécu
molécu
Real
Express
adoption
orchestre
##án
##ulf
Prince
Hollande
décol
sinc
crédits
##uet
vieill
##anou
("
##IQUE
marge
##arez
##otage
##êle
Lee
résumé
évènement
diminuer
##estation
Soleil
Ordre
##paration
enthous
féminine
lanc
olympique
ais
venant
hiér
intrig
êtres
Samedi
DC
##ERS
secrets
leaders
romans
inond
book
âgées
##avre
déplacements
intense
Communauté
##LES
Roche
##pé
##ORT
dette
ministres
intéressante
Chac
##rs
créations
##onymes
##opsis
Baptis
nuits
Street
manuel
tourné
YouTube
Ont
souffle
##vint
albums
##IO
##vey
posé
ration
##ISE
Glob
Œu
##rosse
natur
##rairement
trouvez
incar
Jules
##orel
inscri
oubliez
##obilier
appartenant
provoquer
taxe
Protection
fixé
Perm
Oise
##çait
inspiré
institut
perc
Ol
TVA
Crédit
insuffis
pollution
##inal
sacrif
façons
##urie
Jui
originaire
argument
hauts
sensibles
rôles
phases
fasse
##cieux
time
##mit
##cht
fonde
navires
générations
##Ad
météo
aiment
discussions
suici
Réunion
commencent
bouteille
éte
Bet
##igny
remarquer
pensées
noirs
élevage
mos
',
céleste
connaissent
casser
##isement
vocation
boite
Occident
récupération
plaît
grève
comédie
farine
mines
honn
savons
inscrits
infant
//
cellule
Exemple
cimetière
Jeanne
Lam
Hub
##AF
incontournable
##icielle
libert
Allemand
Ox
Pok
##uez
initiale
ordres
##mel
énormément
Défense
NO
tube
SD
aventures
choisissez
##érales
Jim
ordinaire
##rive
mathématiques
Malheureusement
chargée
directrice
bul
##rasser
débou
Sébastien
dégâ
OR
mate
départements
datant
négociations
personnalités
huiles
envoie
spécialisés
##cide
familial
Ard
profite
casse
observations
coque
assassin
maqu
initialement
##zer
bret
schéma
Dor
Travail
déposer
Bad
##mile
turb
auxquels
##atar
mené
Mort
soutient
Isabelle
Eh
accords
culte
##manie
empereur
Collection
Mém
fromage
circonscription
publiés
expans
Conn
Tch
débute
Mans
médiév
battre
##agerie
identique
Conditions
présidence
contract
musiciens
bol
préj
##ensions
voile
harmonie
##VA
Harry
##apé
poète
rechercher
##burg
Ile
réin
confirmer
##ensé
vs
perspectives
seules
explorer
##rateur
imprimer
excellence
Kit
chauffe
sacs
voyager
encad
##domad
sombre
Bul
appartements
##opt
méthod
bourse
extraordinaire
##lum
décennies
stabil
éthique
Déj
##sa
Suède
##TO
relatif
Justice
Congrès
interaction
oblige
boire
##cept
policiers
##arme
balle
facilité
dir
jouent
##oom
ONU
mets
reproduction
Colle
ambition
case
seuil
Manuel
##ourner
tables
surpren
##illis
aspira
désigner
Abb
remarquable
laver
Maz
commander
##raphe
##dd
##rose
##teries
instantan
modifié
guér
religieuse
RO
##xi
marins
Nam
élarg
Ivoire
Appartement
Ecole
Smith
interac
matériels
référen
nommée
model
augmenté
Cler
##quants
Gouvernement
Monte
lever
##ogo
conformité
Ay
faciles
Client
##ão
robot
intim
introdu
obtenus
##EC
Stan
photographe
##ophones
Veuillez
habitudes
Corse
Access
Obser
##estin
Fal
intéresser
Link
forment
##éron
##ateaux
##wa
University
Vendredi
##pper
rétro
Caroline
usages
pant
enjeu
réunions
coronavirus
dirigé
##oe
doté
disait
expositions
aî
##lises
testé
dessinée
Claire
astron
parvient
rect
::
Canadi
Vac
condamné
Aide
##itimes
Ker
Meu
restri
édité
Deb
généraux
##endes
recul
tailles
sexuelle
hect
hospital
Lion
##tip
##encont
hété
##ilie
##itte
sauvage
laser
considérablement
fibres
Presse
bot
Contactez
issues
chinoise
Constitution
##lusions
adaptées
##cienne
coucher
décal
roche
promen
…).
##agas
visu
horizont
rachat
JE
Fant
DI
opportunités
rapporte
faisons
simultan
vern
##ouille
##isode
odeur
tenté
##oises
infirmi
hybri
Dispon
enlever
sensibilité
conserve
Records
sonore
##vages
moul
américaines
Didi
##uma
panneau
preuves
soupe
hygiène
pousser
vété
Rub
##ections
problématique
Fourn
Vidéo
Caf
voient
conforme
conjug
imagine
Méditerran
Sarko
aise
dep
gestes
biz
##visor
Lan
mérit
HP
iv
commandant
essentiels
Alph
Bienvenue
localité
PME
oreille
##cure
partagé
empre
réduite
##versité
Équipe
soutenu
brig
devrez
sauce
Contrairement
Défin
visibilité
Aix
##roduction
plomberie
congé
Stade
rassemble
nob
fatigue
##tz
##texte
Ba
##xion
muscles
Gabriel
lunettes
réservoir
da
##éth
Alsace
emm
Chi
ménage
disposent
Ensemble
mous
##atine
pli
##rante
work
Octobre
Aucune
garçons
docteur
##ded
gendar
villa
croit
Statis
lancée
French
vainqueur
Baptiste
étrange
sémin
typique
polyv
Lag
##ball
##late
Virgin
abbaye
Roman
##umeurs
##inel
##ïv
om
##amed
professeurs
hautes
##oly
paras
##sid
HT
légende
##érez
voud
express
Fern
bur
destinés
chanteuse
Steph
Rencont
rayon
itinéraire
citron
fréquemment
Savoie
##térie
Princip
##otels
immer
joy
hebdomad
sûrement
interactions
Vert
verts
Dimanche
Renault
##back
courts
quad
Actualité
suspension
##ovie
fleuve
##ducteurs
Tokyo
alerte
listes
Nu
##rue
Arthur
##LO
perception
exemplaires
Paci
Modèle
gardien
appréh
appelés
##ION
votes
infection
Quatre
Nik
BO
VF
voïv
dict
Force
sug
na
##aria
Stock
Valent
alliance
Euro
feront
##hib
##nées
##orteur
mn
inég
japonaise
hospit
aérienne
##âteaux
##uent
permanence
Rand
Tan
imper
Cle
Catégories
##ulateur
récents
Sem
Smart
Nancy
restera
Analyse
gouverneur
alph
fidé
cathédrale
##amer
##oû
certificat
##pedia
initiatives
##ism
bénéfice
marchandises
Dev
Boy
céra
Med
Ris
spectacles
Serge
verb
préfecture
ouvertes
pénét
VO
francs
##UX
IM
géomét
Roch
caractéristique
Bit
veuillez
##ardo
##GC
##lables
courants
rive
permanente
plaques
provisoire
mobilisation
Kn
Bah
##ür
horizon
théor
ID
verrou
##mées
maritime
comprends
Cass
dépass
pratiquer
Avril
##FC
révélé
center
Monu
consentement
##visible
mixte
compteur
##oma
Couv
canadienne
Science
aériennes
race
##oivent
##UC
acad
##uine
Mand
")
##nier
victoires
témoignage
##ista
##organ
Hill
livré
##landaise
cliquant
correspondent
Duc
envisager
probable
pouvaient
perpét
##otype
mauvaises
reconnue
##ignée
manus
sélectionner
touristes
Blo
spéciales
##rètement
hol
talents
fixer
sachant
définit
champions
##cho
baie
échantillon
##ffici
sélectionné
##stal
découvertes
voïvodie
pira
Avr
théorique
impro
éti
North
tiens
Saison
Hon
Quoi
##gas
##aisie
text
guerres
##gal
psychologique
journaux
##térieurs
mobilier
vertu
essaie
Mots
témoignages
##vation
##lera
mâch
enthousias
naz
assurances
White
Pin
réparer
Esprit
Benj
caisse
maternelle
Fire
Feu
garantit
dégâts
brun
rideau
créativité
pin
##osyst
indépendants
BM
foule
##inité
citoyen
Réponse
adversaire
pourcent
coqu
racines
PM
flash
restant
Pass
Chapitre
malades
précisé
assistant
subi
##EM
Dess
humeur
Maître
sécher
profondément
Orlé
registre
officier
quitté
Arr
Vér
##apt
boucle
Inves
Livres
utilisons
jury
##ernité
professionn
##anna
exprime
open
##ignant
criti
Didier
portug
apparten
marcher
pair
inser
échapper
Numéro
attraction
##TP
##auf
financer
##chev
##aissez
technologique
provient
sympathique
informe
Public
Florence
Sarkozy
Kim
juridiques
SM
United
Atelier
agissait
avoue
instructions
Fonds
initial
League
temple
Galax
(†
concepts
##top
Ki
bénéfices
##arque
provoque
##ranger
Tal
Ky
video
Vend
Péri
africaine
mourir
lumineux
chrétiens
caractères
aperçu
effectuée
##anim
branches
Excelle
Adam
##field
##PH
Raymond
voudrais
apais
Louv
venait
Ache
##ito
vingtaine
ouverts
Vil
communautaire
binaires
##Ch
which
passagers
Cinéma
chère
##cler
##oxe
défic
Janvier
aimez
égal
##uster
franco
entrées
assainissement
Juillet
##acer
rénov
Villa
Fév
##zaine
Donald
Bourgogne
solo
simulation
Bang
Adresse
##acter
Profitez
relever
Médi
coordination
##orent
adresses
##akh
connait
group
Professeur
##ensation
##ria
conversion
tournage
##right
numéros
génie
caval
trains
contactez
poursuite
band
garanties
gay
explor
##tia
estimation
Signaler
lits
stars
Trouvez
Studio
communiste
optimale
Tourisme
interdiction
ennemis
Classement
quinze
dormir
styles
Chicago
Lamb
##-)
transparence
Finalement
##weet
convaincre
Occ
brésil
diffusé
recensement
finition
struct
indicateurs
Sel
plonge
##melles
inac
seni
##oxy
Casino
Education
traverse
##onnerie
Tele
Vent
miel
nations
actuels
diffusée
susceptible
actuelles
Mobile
surn
##win
Xavier
LG
espagnole
nettement
approvision
mentale
Sui
Alger
avancée
##via
House
Eau
ep
Lieu
Tours
gratuites
détaillée
ressorti
étudié
##play
##uations
inconvén
composés
RP
instruction
##lion
Sénat
pratiquement
épid
varier
affronter
##amel
redé
##Hô
traditionnels
remport
fermer
météor
lèvres
##oster
comptable
Install
détection
biodi
##fique
pomme
contrainte
asse
Moulin
survie
précédentes
##ilde
nouveautés
Méditerranée
Administration
Team
milliard
récip
Jer
Fabric
Temp
intéressé
cannab
##LC
introduit
Bibliothèque
suivie
##ough
inconnu
géant
enchaî
éman
##uant
récent
russes
boissons
planification
##vergne
uniques
fidèle
fabriquer
?"
assim
##riment
Novembre
figur
Orléans
camion
restre
Mid
culturels
grosses
PO
couvrir
Gene
##phones
Eglise
communs
ciném
qualifiés
bleue
couronne
foot
##INT
Septembre
responsabilités
sw
hel
nécessairement
connecté
Juil
##isations
gly
Ts
jazz
tunis
Résumé
possèdent
rede
Julie
##see
entrepreneurs
logistique
disques
##hol
##udios
boutons
teint
calculer
pôle
##crite
mout
##unior
incorp
consacrée
Na
##quette
Day
Photos
appuie
##atou
envies
##ston
##outez
aborder
Ancien
souligné
erg
##tences
référencement
retours
réside
rayons
renforcement
##gences
méc
jac
habituellement
chaussée
conven
triste
Bach
Idé
recherchez
universités
avère
Psych
GP
étions
##toire
##aigne
connaitre
PAS
suppose
prends
négatif
suéd
voisin
réfugiés
étendue
filière
##ortées
Lois
##CHE
##earch
romaine
Sources
figures
##aval
décédé
amont
Posted
explication
BL
ras
left
##aution
##yme
parag
cigare
##fel
##çants
succession
amor
##UT
Golf
memb
fantastique
##omètre
médicaux
##tical
##akar
vaisselle
tch
départemental
précédents
Économie
##ardez
Règ
traités
##oît
pince
##jectif
Vu
Coc
peintures
Mol
Compagnie
##vu
ampleur
communications
harmon
dec
capt
concurrents
##iation
métropol
WC
primor
##oyant
Combien
répertoire
paroisse
phénomènes
simplicité
Réseau
touristiques
écrans
Commerce
##gel
##arth
Scén
permettront
congrès
serrures
serre
qualification
organes
Niger
symbolique
Couleur
écosyst
##mail
Fun
pensent
##orelle
##ouff
absolue
cogni
God
Étienne
donnera
##issi
dame
baptis
révol
Rach
##onnez
immat
bourg
prière
Mél
Six
affirmé
##opa
édifice
##intage
animations
##row
##bec
complexité
désert
variations
##aps
sportives
comptait
intellectuelle
##sel
tensions
élas
##IIIe
##ageux
cardiaque
Clim
Benjamin
complémentaire
explications
pc
ordinateurs
##gnes
marquer
trouvait
Chamb
##chan
faim
ludi
sons
Gratuit
législation
IG
Gare
##éry
Guinée
##angers
expansion
Vide
semblait
##ía
abatt
##oléon
##quip
incluant
Ta
sanction
prochains
majeurs
satisfais
saut
Cannes
universitaires
Blanche
vrais
informatiques
bonjour
Situé
Audi
bière
Britann
légitime
Broyeur
##ép
##bur
vitrage
Député
abonnés
appuyer
##érance
climatiques
noix
##oung
intui
##ypes
autoc
##ims
plainte
exposé
ps
##cio
localisation
usines
Vel
genres
Canal
laine
game
traits
Intérieur
##asa
Initi
console
ingénieurs
avocats
administratives
retrouvent
annoncer
thématiques
servent
##étaires
##ador
##rint
Ale
clôture
œufs
clavier
Kur
accusé
précon
résistant
neufs
pauvreté
troupe
##oman
scru
Pharm
attaquer
individuelles
salut
Nive
UNE
utilité
circuits
frappe
Conférence
crime
ultime
étrangère
##ustin
##telle
##ôtre
Championnats
lampe
Libre
South
mince
génétique
engagements
##iert
effectif
Lettre
protège
magist
lun
##inger
coffre
génére
##xic
magnifiques
##nn
Station
conçue
Joe
audit
Bran
##hai
##iante
canalisation
antib
RH
Tam
Conseils
boulot
lavage
combatt
Sus
canon
Management
reconnaît
préférable
jp
ferroviaire
##lav
escalier
épic
entretenir
dedans
Santa
Jeudi
chev
Lundi
syndicats
dan
Compte
cylind
hydrog
sages
séquence
humide
adhésion
participant
Nouvelles
moral
usagers
Rechercher
##uth
Dal
##rap
ED
paraître
adresser
épous
unes
##obi
Demande
Montre
##TV
strictement
ER
##org
possession
vies
Eug
##dem
##andre
couples
##elez
récentes
fiscale
Stand
remonter
continuité
cub
##ombe
chats
##adre
Genre
Mété
FOR
Information
fluide
Germain
régulation
agglomération
boutiques
litt
FN
rempli
Pom
##celet
##êté
OP
excessi
gâteau
Nar
jeter
obligé
installés
continuent
Laisser
Format
SH
Vietnam
chirurgie
##zen
célèbres
anthrop
Ton
franchise
Constant
##eron
Certes
morph
##str
##atio
digital
approxim
##ymn
quelconque
##orption
regre
##éries
##ERT
proph
##ontan
##dor
##velop
statue
récur
Télécharge
##angle
rempliss
Awards
Read
justifier
digne
préférence
attendent
facebook
duquel
militants
##usalem
rad
Convention
surviv
chrétien
##roï
intégrée
##BN
parlent
Méde
##lotte
gouvernance
blessés
adolescents
surpris
Ko
##orable
sacré
évolutions
tuyau
créateur
constamment
Salut
prévues
remplace
vendus
bris
##aba
Ho
##utilis
Life
doul
Rio
foss
concasseurs
portefeuille
décrire
carton
connues
produite
Comté
animé
sortant
##orex
las
indispensables
##éens
heureuse
##rip
Zé
déform
emmen
Pâ
##ierie
fores
championnats
agressi
##iettes
Rhin
vivement
acous
##very
interprète
Jérôme
souhaité
drame
voulons
papiers
pm
provenance
ther
masculin
significative
volant
néo
passés
Amour
thématique
Lui
Côté
##IEN
Permalien
détour
segment
Rencontres
Fou
contiennent
Patrimoine
##bus
ouvriers
biodiversité
amateur
optimisation
excès
flot
tiré
hall
techniciens
Quar
##ocèse
retenir
coeffici
consommateur
savon
extérieurs
axes
Benoît
solides
Hans
fal
démarrage
Christine
demandent
##onto
##hé
concentrer
graphiques
Kel
héri
##dum
gastron
climatisation
entretiens
épidémie
cut
Chauff
autorisé
insectes
Fred
meuble
##arium
##ML
##tines
indés
république
flor
surmont
conversation
raisonnable
Box
ultéri
parcour
venez
éro
québécois
##teaux
##AUX
##tille
Maire
singu
##ertes
##ysique
Xbox
trous
technologiques
##amé
régiment
Parfois
voter
##rimée
potentiels
Norv
cabine
obtention
alternance
Amé
Gros
dirigeant
##gers
Cub
##ÉS
##chester
soph
CAR
##inois
insta
laï
##ignan
éclair
Mardi
agriculteurs
Cité
plombier
cosmé
##akes
Metz
will
##hr
##ûte
Chat
inspir
recr
Hos
Division
Bertrand
tabac
Communication
joindre
if
Lev
tag
Docteur
salaires
##erme
black
Pét
resté
##ulant
Synopsis
valable
Sky
Sn
Ford
##itons
sembler
angois
Créer
Hou
intra
participent
Hommes
félic
litres
##auph
Bis
blessures
##lobe
occupé
représenté
Monaco
Jacob
âgé
Kong
concevoir
ignor
Cond
Socie
##rents
devriez
centaine
CBD
serveurs
présentées
##dier
lol
home
pourriez
##ockt
Pack
sn
instance
Argentine
pneus
camar
Égypte
##nec
ménages
Bén
Rouen
retourne
Dip
profitez
roul
ciné
##ownload
intime
voyez
Remp
Double
##mpes
poignée
amplif
mineurs
Lorraine
Calais
aveug
réjou
trent
##alogues
éterne
##prits
Center
détermination
Hélène
indésira
authentique
délégation
Ty
Venise
Colombie
historien
##tooth
engend
##hod
installée
bateaux
réserves
connaissez
refuser
traum
substances
spectateurs
##aissant
Serr
Hugo
##aby
Deuxième
carburant
##pi
DJ
libérer
interl
distinguer
feux
générer
favorise
monsieur
manche
consultez
spéciaux
##rables
insertion
distinction
transforme
Professionne
dieu
choisit
positifs
exécutif
##tilise
##ELLE
ruisse
##timent
subli
Iss
traditionnelles
End
imagination
##onnage
##well
##èches
Immobilier
##abol
activer
calcaire
blanches
Data
##liser
Tab
constaté
##bs
oeuvres
correction
Mathieu
parcs
queue
accidents
##sant
remonte
Jam
constituée
##elin
##house
trouble
cuire
##mbles
Rapport
Fed
Wood
Bag
désactiv
IC
arra
##euses
DR
cave
PSG
##sté
africain
requis
Beach
##nac
##lège
jaunes
##phée
recharge
puissante
boulets
livrer
horaire
religieuses
Auvergne
def
##opping
##erre
silen
##ateg
considérés
contraint
clip
visibles
partielle
Ress
vid
speci
##aret
Esc
éco
royal
bénévoles
Réalisation
##refour
têtes
mait
priori
ADN
##venus
Da
##iales
-,
Squ
Sup
manifeste
Arri
##tén
##ients
":
consommer
GPS
vulnéra
##èvement
School
acides
coco
##aris
fidèles
##irent
parquet
##antaine
Cé
footballeur
négociation
Afficher
chang
##ocal
entourage
déménagement
##inson
gener
luc
nan
intégralité
##nter
##IDE
néglig
signer
##chron
Corp
Litt
##led
##version
Francisco
##cript
Août
corruption
volets
autrefois
CAP
Fas
souter
passages
gouvernements
validation
combattre
apporté
hectares
Louise
pourcentage
Mercredi
##lian
##uile
##urés
March
rangement
immobilière
déclarations
From
##çage
##ufact
désesp
##intendo
Fleur
spontan
##édia
Soit
entrain
##loge
Alice
##ops
Mario
##uz
Consultez
empire
encadre
régulier
##ken
extraits
##GA
alté
productions
Associ
Armée
Juifs
under
Journée
Divers
eme
Vau
nomme
échantillons
auxquelles
dépendance
touché
Mb
aval
lieutenant
réfrig
déposé
blocs
Préf
céréb
fantas
fiabilité
Versailles
gré
##raft
chargement
##pitaux
développée
étages
Hôtels
##flix
refaire
##TEUR
associées
soix
##itanie
réservés
haine
héritage
coopéra
Vain
savait
Sony
contribué
amoureuse
socio
Liège
fallu
##CL
mad
manches
détruit
oiseau
Emb
partiellement
vec
blessé
Gui
##ghan
contente
prendra
Coop
##icielles
##cade
rendant
VPN
encourager
##bd
##PI
onde
Agric
temporaire
##OUT
curi
nourrir
toilettes
##fred
Marketing
virtuelle
##osa
##ouch
citoyenne
Sah
##stan
commandement
##Advisor
##ski
##oro
flotte
Déjà
Lud
##rologie
interf
refroid
##ardinal
Juan
Mau
Fle
hydrau
Fé
Garonne
délib
accordé
compromis
illustre
moyennes
emblém
approches
prévisions
fabriqué
soigne
balcon
##irant
refusé
témoin
aidé
##éenne
déploiement
Jeunesse
Anna
##quier
Clo
##prême
progress
canaux
réflexions
##onymie
chrom
##La
?)
immigration
Cru
##quage
parisienne
Prob
lan
nerve
##ree
##rois
##agen
soc
Chau
Edition
##ST
souple
formid
sécurisé
TripAdvisor
attrac
cool
Antonio
Responsable
Roland
Mohamed
shirt
Kam
chercheur
chic
révision
biblioth
dîner
##gs
jal
agrément
Time
##sent
étudie
Mik
Jones
critère
avancées
##outch
habitant
romain
occidentale
##UIT
Total
Enfant
approvisionnement
affron
multitude
témoins
fascin
imaginaire
parts
##board
Cloud
circulaire
qualit
agro
rémunération
bactéries
Ontario
##ombre
cherchent
résidents
##CES
goûts
amener
occasions
Lav
Ric
##lio
vive
promis
renouvellement
##ionner
Météo
réfléch
paradis
exerce
architectur
rotation
guère
##iture
dépression
francophone
consent
Tay
tim
syndicat
Diam
Sum
##ocy
Poly
certification
Jord
##ayer
Réc
##agements
Micro
Rendez
voyant
##uck
maillot
iOS
musées
GT
DA
sauvegarde
She
##osée
Aquitaine
##ICE
Heureusement
##ïs
Pant
massac
préparé
statistique
arabes
cliquer
##mét
enver
vigil
appuyant
die
Chan
menées
supérieures
photographies
technicien
vitamine
Leon
##irait
Entretien
modules
émet
nuis
sale
égyp
##astre
olive
épargne
##tex
inhib
Wes
aggra
concernent
soule
volontaire
##Hôtels
princesse
fermée
travaillant
##arios
bec
##gation
##aisses
doigt
##ands
##trait
raconter
##nellement
suffisant
manager
##nette
##had
souffrance
filiale
informé
verra
déter
##merie
##rable
between
##cés
centrales
BA
souhaiter
##mètre
tournant
psychologie
Jérusalem
variés
librement
taxes
Laval
prêtre
fiches
polyvalent
regret
intr
pareil
##hel
PN
##BO
SNCF
défauts
cheminée
pist
préco
pourrais
définie
bienvenue
##mir
online
Fu
Bourse
devaient
##quets
incons
##pal
Prenez
strict
urbanisme
conclure
parlementaire
##renez
bague
##axe
phare
quantités
Hil
##isti
mariée
Sarah
Camille
##alition
##atisme
##side
subir
##oke
##hal
abandon
opter
supporter
FF
master
Best
résolu
Fontaine
Sin
##isson
rez
tromp
lourds
Image
parlant
électorale
drôle
descente
catastrophe
allemands
spatiale
Promo
visuel
brou
rentre
Nathalie
wiki
créant
foie
artistiques
##lisabeth
##ett
agisse
Hauts
Pel
##anga
compagnon
fonctionnalité
implication
Lut
Rousse
##court
[#
effectués
abrite
plug
Main
Enfants
Gast
améliore
##Press
Françoise
révolutionnaire
observée
##mas
rebond
Change
Chacun
Blan
devenus
##loque
confirmation
Jud
##anner
fiscal
Ru
Vill
Utilise
##HE
##gny
Bons
migrants
Human
revêtement
Toronto
##êne
##anni
roue
##aceu
gorge
problématiques
Particip
intestin
##ésar
Of
##aha
palestin
chantiers
##raux
existant
##ners
Jane
accessoire
menaces
payé
élevées
classification
courir
témoigne
aident
côtes
prouver
##amines
Haw
notions
cycliste
Collec
Sauf
##oient
Conse
##ricolage
Clément
##ulent
inclut
##isseur
traditions
balade
syndrome
OC
relatifs
mentionné
remercier
fausse
nourr
universelle
stages
plai
##AA
RS
##ando
dons
bail
Alliance
Good
formats
rall
Fir
Artisan
##ustes
soirées
interromp
bass
Aoû
##uri
Poste
Irak
Commande
##onciation
Qualité
incer
Laf
Contr
##bach
Assurance
##olais
Châ
Habit
chrétienne
poit
EST
interlocu
cliniques
EL
Magazine
actualités
produisent
line
précipitations
##rales
##ould
renseigner
parad
Bau
##clar
réalisations
capteur
alternatives
choisis
serruriers
##tiste
##luent
cho
##ido
terrible
##céd
observé
Dup
Va
vitesses
absorb
##cidence
LC
égale
Disponible
Juste
antic
enquêtes
colonel
##chait
##…)
réutilis
##érou
trip
vaccination
amène
particulières
##ipédia
Mouve
autoroute
##ONS
##ruis
Scott
cumul
documentation
romp
##tinence
##ids
crimes
Dec
polonais
##édez
tas
infini
amené
transactions
engagée
##autique
scrutin
esprits
Route
##cir
réussit
Actuellement
chan
conqu
##issance
##oney
litté
Basse
souligner
Ye
prédé
Solid
Pis
nage
correspondance
East
saine
Hongrie
Charlotte
britanniques
##enseur
Démographie
tol
MC
##osex
fédérale
relevé
##prises
Éducation
acceptez
Observ
##rats
poussière
##oxydable
accou
SER
Kal
##cile
##obiles
démontre
impati
sm
their
ISO
##ciplin
##tration
poulet
##QUES
Yann
hong
merveilleux
tendre
manières
matelas
London
contenir
diffuser
malh
rurale
##MB
Zone
célibataires
Films
Statistiques
mutuelle
Concours
Marché
Seul
élimination
progresser
LO
##abl
variétés
Trouver
approfon
tirage
adapte
héroï
destinées
Clermont
Hay
iPad
situées
aig
conçus
paquet
hotel
remarqué
territoriale
##raits
##kina
projection
musiques
##lisée
##ignent
cristal
##cité
##esté
policier
doct
islamique
Deu
cacher
Surtout
phras
##icités
Décembre
maquillage
monast
universel
exploration
##iendront
##dep
méditerran
Urban
gagnant
fonctionnaires
Vierge
##tituer
Fils
Nintendo
Band
immobiliers
chair
Cah
Question
##yons
antique
Cad
Version
##lat
bords
signification
délicate
honte
officiels
engagés
IL
pédagogiques
phosph
transporter
camb
étan
futures
##lova
artificielle
[#]
hop
ye
inflamm
épanou
ferait
Étudiant
économiser
Lic
Trop
accorde
##sterdam
sixième
médit
oxygène
##anique
municipales
Civ
bancaires
Être
##ropole
RES
Romain
dessert
acheteur
bouteilles
##èler
Ingén
herbe
newsletter
électeurs
pique
accueilli
Galaxy
twitter
établit
##omen
Netflix
recue
##TIC
sections
podium
mécaniques
Dictionnaire
Command
publicités
Kon
##rah
courtes
Bravo
Nett
orbite
sanctions
libertés
Février
##station
aile
masques
occur
Steve
Social
incident
guider
##mina
canapé
##inale
réagir
##rètes
telecharger
oppose
dévoile
curieux
Ka
##lages
anime
faculté
##ancier
tiennent
détaillé
texture
Chem
porn
##iga
invitation
yoga
arguments
infanterie
définitive
Museum
vérification
soeur
tombé
explosion
limit
##neuve
Island
debout
légale
mélo
##kers
Choisissez
Via
##vue
linguistique
contrôles
ONG
##TIN
##ussit
horreur
satellite
annulation
Cup
##omi
chaleureux
musculaire
Abd
ailes
Mig
juger
rappelé
Ele
##ocht
Guer
Bulle
##ceptions
inutile
attendez
imprimé
Effec
variation
##rions
Mission
assurant
instar
commissaire
détruire
âgés
étonn
romantique
ISBN
électrom
Vl
may
préférences
accorder
##emark
Brest
arom
retenu
Laissez
choisie
fonctionnent
diriger
Kat
fabrique
plongée
insu
fondamentaux
marbre
##ricien
bad
fermés
Restaurant
##lisé
Avenue
##aillé
Expl
saura
considérable
flè
IT
élig
officiers
##ordement
équation
Publication
##iges
établie
##IIe
RA
inex
valorisation
industries
légiti
attire
opposé
régimes
effectuées
fournis
Collège
##acteur
péren
lorsqu’
##oniques
google
FL
##iblement
##fonction
individuels
##rira
illim
civilisation
##aib
##PC
##tilité
meurtre
larges
##rh
Store
Vérif
##ella
débarrasser
##raction
néerlandais
##culation
##nay
rattra
parv
juifs
noires
deviendra
résulte
jouets
tranquille
vertical
Philipp
Arnaud
exister
##énie
investig
Dossi
grandi
substance
rendus
Avez
Monument
sangu
minéraux
chaise
##olérance
lev
inventaire
Light
sauvages
Vic
ayez
jpg
iso
##tem
endémique
argile
Samuel
désigné
protégé
drapeau
nomination
néglige
##lations
personnellement
Islam
thérapie
rêver
Médaille
commerçants
Domaine
apprécie
Wikipédia
bénéficient
gâ
sand
##agré
##istent
récits
ajus
Champions
conclusions
intéressantes
habite
spécificités
obligatoires
immédiat
poster
##ignement
protest
attén
gestionnaire
Inn
##tiser
##bar
..."
illustration
battu
##ciale
bienfaits
gars
chor
##tillerie
noctur
constructions
copropri
##chets
fédération
placée
infec
Amsterdam
Travaux
papa
affirmer
signaux
##……
appliquée
ressource
accompagnée
##èces
Jeff
emporter
DH
Tap
Napoléon
##lib
Info
Liban
jugé
galax
équipés
fortune
aidera
proble
Allez
-),
rigueur
Leurs
volontaires
##table
veiller
sédu
rural
assurent
##mois
exhaus
régionaux
Suivez
offerts
OM
##ançon
évoqué
##DR
hame
correct
Dijon
annexe
cohérence
systématiquement
cannabis
solidaire
plume
fat
terrorisme
##itres
téléphonique
nulle
élégant
recons
))
Enreg
Utilisez
##arisation
africains
courante
colonnes
tron
conservé
WordPress
cross
transaction
fixation
Franck
Zélande
Match
obé
Matériel
encontre
ed
procurer
prisonniers
dirigée
##adou
Bible
commém
##opro
passées
Sor
indices
cookie
Mak
alarme
Propri
Gri
Renaissance
réformes
visuelle
##ring
##sk
Multi
messagerie
DÉ
##ulées
lux
##agascar
empris
véritables
Vainqueur
toilette
franchement
Fut
Digital
Achetez
émergence
##GER
Hard
atter
Mut
cités
civils
##matique
sévère
##uche
examens
Avent
mental
compétitions
Appel
Haï
##alet
##leine
époux
prit
intéri
révéler
obstacles
diabète
Norvège
couture
appliqué
homosex
##versé
also
lé
souffre
Media
##olation
baisser
sérieuse
orthod
##BS
SEO
répondent
##ussitôt
soigner
blessure
Champagne
ajoutant
démarrer
équipage
##dule
heur
permettrait
Américains
Fête
teneur
##pects
charte
Troisième
##ïn
Produit
Opéra
ambiti
vétér
hôpitaux
batteries
##uki
Law
légal
Accès
indications
corriger
»).
surprises
ail
Etienne
laissent
reposer
##END
jean
##ènent
balance
stocker
hebdomadaire
concernées
Devis
Utilisation
cinémat
corré
collectifs
##idente
##sia
ty
courbe
extrémité
Brown
pente
sap
linéaire
##ineux
injection
##ALE
FI
stup
gir
Tony
##ovis
accélérer
devint
Java
##arning
##onnent
classés
apparemment
##wick
##ju
bob
Kir
folie
##orée
##entin
Run
inspire
trucs
##till
Dum
ukrain
##crivez
Ami
planètes
lig
suggère
Had
Danemark
sélectionnés
Gris
métaux
recyclage
doucement
métalliques
##TIONS
Conserv
factures
##film
Midi
assurée
placés
ib
##odge
bic
contributions
ah
enveloppe
délicieux
municipale
##IST
Territ
chimie
manipulation
Nob
cot
Contre
##key
##rerie
éli
Gust
##outchouc
Commentaire
crédi
publicitaires
abandonné
Reims
##fran
démis
Peint
poitrine
atouts
##équilib
##onnière
Ultra
jan
gains
surveiller
##rétion
##jections
poêle
noyau
traject
administrateur
##quité
Marti
préfet
##anca
élector
##St
solaires
Offre
cockt
##rar
used
Mira
##dictions
dun
##uto
Boule
caracté
revendic
cac
traverser
##chy
cahier
Suz
Victoria
Mentions
().
Direct
't
disparaître
réunit
Choisir
SAR
Voit
vot
lisse
##ularité
encre
stagi
vieilles
##erner
maîtriser
Activités
##anson
implantation
expose
ajust
puits
signaler
##lume
Rot
Johnson
gants
##vil
brass
Set
théâ
phrases
IF
approfond
puissiez
créés
Construction
intelligent
parisien
;)
jouant
LN
##énagement
relief
imb
illustrations
grains
using
travaill
gravité
##dical
Fa
suprême
##athan
stratégiques
monté
récompense
scandale
astéroïdes
Editions
arriv
interroge
CDI
procl
fes
ajoutée
ergonom
réh
trentaine
allée
suffisante
##PP
ports
suspendu
FO
neutre
Pacifique
attaquant
##itan
charger
##hu
antenne
exécuter
blé
résister
églises
##ED
gère
servant
exploiter
Texas
##VO
confié
réunis
reconstruction
chris
##ertain
##viers
gram
##oche
molécules
Rappel
neutra
déficit
alliés
avancé
bébés
funéra
Mouvement
exil
McC
NF
Actu
convo
Tant
ved
Dipl
##ologiste
lentement
thérapeutique
Economie
parrain
Seb
pension
locataire
symbol
(-
Linux
Pôle
disposez
Dark
terminée
##oler
##ibre
considération
rach
cohérent
clos
##qua
Pier
Installation
terrestre
juges
spécifiquement
Compé
Tech
mystère
Municip
##oriel
Extra
recommandons
##Hz
did
créateurs
acheteurs
démontrer
bann
Williams
payant
jume
put
Anthony
Début
Fon
organisées
organique
##ivern
##ift
lip
##site
##éline
puissants
originales
démonstration
mètre
JO
PU
écologie
College
Garde
générique
Mike
productivité
IA
potentiellement
Données
caractérise
cordes
estiv
évolué
##lètes
##erc
onze
##êmes
champignons
Wat
##stres
youtube
Pomp
caractérisée
Stru
Equipe
majoritairement
Work
mour
GO
##ural
précises
Interv
détecter
souveraine
saveurs
Répar
##RC
désagré
##agan
indiquant
planche
innovations
adhérents
##endi
##aïs
Tribunal
existants
montrant
consacrer
##léments
tranche
XXIe
##oyé
paille
marie
céramique
pari
Bot
##ced
mères
tasse
étendre
tue
dépit
##isser
discu
##Te
menuis
Ash
attribué
crises
##èves
dégradation
##ogue
##analy
PVC
Niveau
intéressants
autrich
posté
abandonner
Neuf
couteau
virtuel
référent
CAN
admin
Jes
Pois
lectures
##ratif
cellulaire
courriel
##ove
libéral
Get
patience
lourde
mp
##verser
##ISS
##oria
Marg
Fol
rempla
gig
refuge
##isembl
##cev
Bost
##rui
Burkina
Institu
agissant
Alfred
télés
Tél
inscriptions
Océ
Hyd
emplo
inclure
Tém
##lieue
imposé
industrielles
réels
##iable
tram
Moz
préoccupations
domination
Online
loint
##abulaire
serais
##ather
##pectre
attends
##ander
lame
Gour
tubes
sensations
##akistan
guides
##tish
accomplir
naît
##YS
##venez
intemp
écho
ensole
##oram
Béné
maux
dynamiques
##roirs
tam
Imag
composant
sœurs
supérieurs
##rances
Ég
##nen
aérien
matrice
metal
Laus
exprimé
identifié
Global
Illu
##ione
Premium
Exposition
prochainement
convaincu
##anny
##raphie
##EST
##rough
vif
buff
anonyme
##aton
Age
vivants
honnête
publicitaire
Show
iran
prosp
sax
##gnez
UV
micros
##diale
Munich
pacif
demandez
##GP
Européenne
Écrit
magnétique
##gos
mett
Vari
vélos
bouger
Faut
##BI
los
évacuation
promenade
##umée
Téléphone
cuisin
unis
##ouvant
ke
Avignon
remporter
apportent
immatric
fauteuil
store
Russe
##agu
Yam
monop
valider
débuté
herbes
Chevalier
Flam
placement
canc
##ovic
Madagascar
smartphones
spac
bin
allong
##tension
appellation
##urez
##oste
passionnés
impacts
Cinq
COMP
anxi
##uu
dysfonction
Joy
##iendrait
Spr
provinces
pix
##oui
##ASS
bars
Pow
répand
somm
apos
drogue
prévus
calculs
prép
confie
##ights
Écosse
##xx
cardi
stationnement
##acy
minor
SI
étendu
##ij
Kaz
Architecture
##rey
GU
aurai
##cted
intervenants
coins
particularité
##inations
##tina
Lyc
##DS
Support
mettons
margin
hâte
Style
wc
##ouement
algorithme
promotions
Toy
sat
répondant
adversaires
pend
volcan
Jenn
faisaient
##geot
Dragon
vitre
espérer
Chemin
SMS
Caen
ligue
##icales
symboles
média
##xy
assorti
##rik
prévision
Chili
originaux
persu
Matth
musicien
Féli
dign
examiner
Corps
Moto
carrés
Costa
camps
durer
kW
filet
boulevard
Bow
##chard
maig
grecque
éoli
Spor
Parten
laté
extérieures
sensibilisation
Court
##ground
Mix
miss
territoriales
plancher
abat
véritablement
»),
##formation
Capit
inat
##TEL
Angers
canalisations
valid
domestique
saisie
exemplaire
Éric
entité
baignoire
Auguste
propagation
##ities
confection
Soyez
##hist
élite
quarante
##peaux
apres
transparent
broyeurs
concré
parcourir
littéralement
sulf
estom
##rov
curiosité
##valuation
about
Chapelle
Situation
scénarios
abbé
Marque
##opathie
best
PAC
fumée
Littéra
astéroïde
pilotage
Jeune
Hier
effectifs
atteints
Compos
##ological
Agriculture
figurent
sain
vagues
##gust
pseudo
immeubles
Hot
enceintes
squ
coupé
faune
fidélité
rapprocher
promesse
globalement
renommée
positionnement
##cue
##bour
tomates
##raf
achète
##ynas
répartis
##rairies
##ariats
noté
éditeurs
sondage
Nation
évoquer
##ombres
infrastructure
##cuit
déterminé
##icone
HC
activation
pod
Lettres
Young
Comédie
Society
##arin
bisous
Ech
##encer
apparent
étonnant
formidable
##anteau
relâ
ours
César
tentatives
Temple
fines
gloire
notice
manœu
##gents
biologiques
Jun
##uan
GRAT
serai
triple
associer
forums
capture
##ENCE
Tib
valide
##td
consens
Pav
ingénierie
infections
pensais
posée
organisés
Rapha
made
déroulement
reprodu
professionnalisme
environnementale
Water
##agère
mélanger
Mettre
##chim
respecte
divorce
cinquante
Lap
détention
combustion
##oussin
##idon
réductions
##icateur
Vallée
FS
##opie
osc
Azur
doctorat
ventil
métropole
##douard
MM
##mples
Libération
intrigue
tick
Nuit
formules
formés
##lions
Lew
bib
plastiques
voler
boîtes
disciplines
chroniques
lumières
Poids
constructeurs
##gués
restrictions
cylindre
##light
savais
coiffure
conservateur
Finlande
développeurs
subit
démontré
Times
Gon
chargés
capteurs
autocht
##ensez
préférés
récolte
Valérie
diminue
##interest
Unies
pizz
Nick
préjudi
##TU
traî
orienter
Wolf
acceptation
Wel
Vieux
Eg
épices
latine
poème
applicable
tén
nationalité
hybride
finales
approprié
francais
heureusement
Jackson
Spect
pouce
unies
##kets
neuve
évite
sexy
Road
Lub
intitulée
Rav
##teure
##ALL
frein
paragraphe
partisans
Report
tric
transformé
sainte
Edward
certifié
fabriqués
banlieue
Sie
boy
Perform
Parcours
Thaï
multipli
Lausanne
vieillissement
nombres
Greg
invasion
TO
##tibles
Bell
spé
basses
Tak
system
!).
##phal
##ographies
##illo
ressembl
défenseur
philosophe
sui
médicales
Kevin
##TIQUE
ventilation
##ryp
Introduction
Publications
pharmaceu
Orches
util
catholiques
two
familiales
##attle
notif
Gas
imprimante
bourgeois
enseignements
étiquette
##olition
lés
CNRS
Karl
dits
##rammes
génial
cbd
##aniste
Formule
gang
manga
fraction
traversée
dépôts
céréales
Visite
##tico
Adap
##gure
Vall
téléphones
confier
function
maç
##cos
exclusion
brillant
Méth
Company
Large
Bluetooth
##athon
##abi
##App
##chéité
Wars
Hit
Labor
Café
##cala
rendue
##versement
Épisode
fiables
Dix
spa
crainte
its
Tome
violon
palette
nécessitent
cutan
##quettes
revues
abe
retenue
indiff
chevalier
tenues
Bil
ner
##istéri
##osez
indiquent
##cedes
##rix
nés
##ennis
Virginie
pèler
facilite
filtres
##ika
condamn
iphone
requête
Color
paiements
##olée
##uées
robots
Grands
Spa
Contacter
##alley
caps
RDC
XIV
PER
ol
Pris
Back
##har
Espagn
développés
Hervé
##nton
séj
détes
renvoie
foyers
##eureux
##IGN
renseignement
inoxydable
communal
Saône
opus
Édouard
Ferme
synchron
interroger
polym
Puy
barrage
hésite
rai
standards
énergétiques
rafraî
remet
##ecc
Générale
passionné
Charlie
alphab
adm
Allah
Boutique
performant
remor
matches
saurait
rapidité
rassembl
verser
UMP
din
orientale
personnaliser
métaph
##ados
vigne
connectés
innoc
##ango
comprise
indésirables
##GO
##lais
relance
précoce
épuis
TP
sculpture
##isp
classée
##EE
Gall
Sach
tv
Réser
Sen
affaib
Games
##struire
different
déroulant
réglage
consultant
Autant
modélisation
Enseignement
durables
confusion
secs
##GM
publiées
estimer
séminaire
Boston
Avoir
animateur
##pective
##inder
dentaire
géographie
phil
affection
insol
Allemands
ال
échéant
##aigre
Finances
Ajoutez
##ONT
##ius
lob
enthousiasme
constant
study
poil
attache
nit
Légion
##kes
##ivité
indicateur
grade
expressions
##rouille
Flash
concerné
ok
étroite
ponts
triom
Éd
##reb
Hand
retrouvez
multic
rayonnement
Catégorie
fortif
partagent
pneum
spécialité
Kan
âges
Ayant
Roumanie
Nike
##émon
profité
acoustique
ensembles
##aron
##iches
Straté
adoré
agran
grain
##gate
purement
conquête
littéraires
hautement
##ei
abrit
URL
##érisation
Sig
Sof
abdom
échecs
proviennent
##uité
cycles
Photographie
Voi
##ITÉ
terroristes
Environ
ressenti
diocèse
bête
chauffeur
Conception
##cium
##média
originalité
cite
##ief
identiques
challenge
blogs
sexuelles
mettez
Medi
##esel
Mose
dégra
glisser
##écile
réunir
Informatique
##aïque
popularité
##tera
Aéro
partant
carnet
##arités
coller
périodi
tempête
##écurité
renouvelables
Week
##arl
affili
##arel
Holly
accueill
partagée
pouvais
##nover
##ovo
Carlos
robuste
##ract
arrivés
##omiques
amuser
trompe
juive
Cross
lumin
Fried
ressentir
(…)
caoutchouc
aussitôt
ambassadeur
##sance
boisson
Accessoires
infil
age
than
##ONN
suites
##rienne
adep
Dimensions
Navig
observatoire
simultanément
rejoign
##INS
user
Poser
empreinte
érig
Mati
prononc
Video
Carl
'.
##luence
biom
grandeur
ing
##kel
assemblage
aisément
Robe
maîtris
(@
routier
##hard
Ped
Raf
Déclar
Jur
fic
german
demandant
##oubli
##abo
Contrôle
désirez
traduire
##ecue
marié
verrez
cuillère
Marguer
icône
onglet
médiatique
wid
expédi
soft
Vue
parait
primaires
Résultat
Will
perso
reportage
attribution
##enaire
contraste
like
corde
vieil
transit
##ios
investi
##ev
Racing
commandé
XVIIIe
perdue
hand
coalition
porteurs
décrite
qualifier
TRA
écras
quarantaine
HE
##lett
digitale
Mairie
other
Bun
lith
##èges
respectant
Naz
##enter
##nergie
cote
chapeau
Acade
ard
gymn
cloud
pompiers
##parent
Count
Maisons
windows
courtier
quotidiennement
caché
priorités
mû
PDG
reçoivent
##mentaire
DG
stéré
célébrer
English
monastère
##VER
sincère
variées
System
INF
personnalisée
##oum
Gilbert
sugges
racine
##oms
Soud
taches
DO
trah
prononcé
##édée
gab
Reu
experience
spatial
sachez
##dues
poils
wall
##îmes
XL
Cham
décors
activement
procureur
oxyd
Identif
Arabie
étudiante
Ressources
Syndic
carn
##abit
##phém
conclut
Ax
tardi
Bilan
rois
bouc
##didas
##ticien
dissim
caméras
Pur
uniforme
Din
PARIS
Vacances
vertus
##échal
Walter
surpl
desque
poèmes
encadrement
TER
##atu
suicide
##dun
comptabilité
Ange
automatis
Sylvie
##cro
Bains
prévent
##mblé
Intég
gramm
Coll
obtenue
kilos
##ignées
Sir
##oko
aperç
gouttes
frig
##ashi
Len
réelles
##velopment
tamp
assass
consci
contam
##agères
##isté
##ICH
##ogen
chauffer
bug
projec
pole
##ACE
SF
##bul
contribuent
cibles
consacre
##DC
grandement
Bande
ultérieure
anec
effondre
barrière
##oques
##bu
##astes
Définition
GS
usure
##pris
MER
voté
poétique
##mons
graisses
Cout
intéressés
##tor
##rr
séparer
##asso
privilégié
Night
distances
cotis
lumineuse
entités
pile
contemporains
##geant
délégué
goutte
laboratoires
Partie
anom
poussé
crypto
démocrate
##bit
muni
Hotels
##ensés
Mieux
construits
pleins
larmes
carbon
gentil
mineur
Madeleine
##nik
##rum
mâle
Emma
soulager
associe
robinet
boudd
bouill
##other
soumettre
tablettes
locations
questionnaire
low
tunnel
##ful
fraîche
link
sexuel
baies
inoubli
Autrement
Manchester
entouré
mails
porteur
végétaux
accroître
##TIF
assisté
offrons
calories
scénariste
vén
intérieurs
##onnaire
méditation
bénéficiez
##ilières
souhaitons
domestiques
##rag
justes
##BM
opinions
sérén
Héra
silhou
##ogènes
##onda
cd
inconvénients
Faso
épaule
reconnus
coloris
Frances
ange
doublé
revendi
révis
##Re
##urrection
sauter
compact
tués
injus
Little
septième
##resseur
pattes
mensuel
##bou
ts
lots
nave
FRANCE
collègue
##onces
##alises
Faci
hypothèses
casinos
##annes
##anciers
traitant
Scénario
destinations
costume
verres
Suivant
cyber
soixante
Alexander
##lov
flexible
drain
sérieusement
FM
amendement
maïs
TTC
alter
poker
##roi
big
Sul
Représ
élégance
fixée
Lumière
Cade
désinf
chaine
Eco
détendre
Series
légers
Obama
##ipel
inégalités
##mus
Rad
Stat
Def
promette
Way
##aline
verd
nd
Marche
Chron
Plut
appé
##cesseurs
essor
métropolitaine
déguster
écologiques
Taylor
##cas
SAS
incidence
distrib
Fich
these
veste
Are
urgent
réaliste
##rences
##sch
Manager
spectre
personnalisés
planches
vernis
rouleau
poursuivi
collectivité
##acle
Hors
cardinal
intérim
matinée
flé
##ensible
Johnny
Pensez
OK
maires
allure
Jonathan
##zon
vocabulaire
Dep
##émiques
##enh
Penn
éventuels
portugais
stocks
Manche
liber
fiss
Lind
indien
vitamines
inflation
##ambou
##arte
coupable
vintage
Picard
Dakar
proprement
Félix
poup
Coh
vall
Abdel
monétaire
Près
évê
majeures
ludique
fournies
##kins
progressive
Gel
Logiciel
introduire
##onale
Béb
hivern
##aze
fraude
fréquente
donnés
Sang
##chers
##aissé
Eu
Your
végétale
Lem
favorables
divin
inév
fondateurs
assurez
##inez
procédés
défav
recevez
past
Tax
bos
##ums
##tape
Reine
blanch
mys
relevant
sentier
supporte
Lat
Cris
PP
##orne
démission
BMW
##adeloupe
Harm
tirs
##toires
leçons
chœur
been
barres
Central
sere
RF
théories
Pékin
pow
Lie
pâtes
Concert
descrip
offensive
visa
merc
Golden
conseillons
##ization
tracé
value
##day
##pente
##utent
chapitres
Maritime
Berg
VII
épaules
Morgan
poches
analog
Vladi
Job
salons
##techn
Lady
first
Prendre
Qu’
viendra
##ifique
dispute
illum
Œuvres
âgée
fondamentale
offerte
juridiction
réhabil
Année
##cières
##ommer
S’
mutation
INTER
structur
Unité
fût
Grég
Garant
##ueuses
décennie
Rat
oncle
trône
##AV
saga
dictionnaire
Capital
végétation
flamb
Bataille
##lick
devenant
décent
Localisation
Soft
bloquer
Industrie
count
##asis
Ferr
Nouvel
coefficient
##una
Marion
conducteurs
dépendant
block
##ben
##oba
suédois
Over
Bord
##uies
vraisembl
interdite
déç
autorise
fragile
mexic
RÉ
vaisseau
passeport
sl
oeufs
Secrétaire
sérénité
Valentin
Linked
prolif
exposés
Om
annuler
imagin
existantes
audiovis
##clerc
Luis
alimenter
Images
exigence
reproduire
architectes
écrivains
##érieux
Plage
inquiète
jolies
ongles
levée
Berger
provoqué
##ved
wifi
roses
TC
Ya
Base
run
attaché
noble
dotée
Section
Eugène
autorisés
réservée
descendre
écout
fameuse
##ends
icon
##pins
femelle
assiette
Moham
portraits
Mercedes
cessé
compare
Tarif
séjours
##onder
employeurs
indication
Maxime
##onna
Mariage
##WS
thr
valoir
optimal
##alo
Expéri
perles
connexe
TN
réfrigérateur
balles
Meilleure
rangs
State
Call
##mba
##pecteur
fournissent
méconn
Robin
hétérog
protégée
##icilement
t’
peaux
laiti
manufact
Porto
posséder
Sont
organe
vinaigre
atteintes
##rétariat
Ler
##doc
résume
Award
bata
chèque
hydraulique
loyer
Marguerite
tombée
piét
##orisé
##ashion
étanchéité
##iere
##ourent
milit
envoyés
Moselle
TG
goûter
spons
Rivière
Accomp
existait
COMM
##oyeur
auxili
regards
décharge
Toulon
Inv
commercialisation
sage
soumise
opposer
communale
Souvent
redi
améliorations
TS
Partage
rassemblement
assise
salade
##ways
power
pâtiss
attentif
conscient
splen
tribun
restes
Bout
Nel
Castel
Excel
##èbres
vendeurs
##urité
suivez
savoirs
hard
irrit
arrange
prém
agenda
##culer
##AIRE
falloir
Fit
BP
négative
mun
rencontrent
croise
négatifs
discrimination
?!
sentiers
accessibilité
Ku
tchèque
impar
Graph
****
fonctionnel
intégrés
métabol
Roc
quinzaine
débuter
Param
Trés
Transports
…),
soigneusement
##ín
Bec
difficilement
Montage
carrelage
##AY
souviens
acid
##acé
##nose
enregistrés
antérieur
##vious
gue
taxi
folk
ranger
composantes
vaccins
occupent
instants
Schw
militant
refer
séquences
ruisseau
mâchoires
francophones
##orcel
##phine
espérant
##aceae
dynas
Inscription
Hello
Loisirs
piv
orale
abordable
athlètes
Traitement
##mad
Gib
accompagnés
Entreprises
Shang
Beaux
America
transferts
##istage
water
instances
probabilité
##ruct
terminal
grise
emploie
Destin
##bal
Cuba
##Station
répression
sphère
##eball
sam
Next
bracelet
paraly
brosse
réussie
Ten
Oxford
latéra
soupç
fondamental
get
essaye
Line
cherché
combles
##uela
Laura
manqué
affecté
impecc
entré
Stephen
faiblesse
PIB
administratifs
##uls
raccour
Brand
fonctionnelle
chanter
solde
Buff
portables
##ensée
départementale
déclarer
##mane
ramener
Figaro
Insee
mondiaux
##DM
Sept
posture
compatibles
sagesse
citation
complets
##bin
breve
Ross
sortent
vents
##URS
rédiger
Apr
absorption
##athlon
espoirs
##guée
admirer
##opédie
Clau
câbles
accumulation
périmètre
soldat
refroidissement
Cartes
mel
Aller
##aza
tume
##oda
mec
visuels
Ans
##vise
CGT
only
##oges
cuve
Pon
débutants
Mount
mondes
Sher
RN
##ouge
##obie
diges
Serbie
OL
August
Chambres
Thaïlande
Mill
##lyn
##Ar
doutes
Floride
Vén
nouveauté
##arts
dune
arros
REN
partition
inscrite
Questions
Sci
##donésie
écoulement
Seulement
Therm
##anz
exprim
inconnue
interag
distributeur
Somme
regrette
Gaulle
négocier
expérimentation
##KE
Infos
couvrant
éventuelles
##siers
adoptée
dangers
décon
##dae
campus
clichés
applicables
composent
##oureuses
team
couverts
##éo
Laure
reconnaiss
éventuelle
Por
valoriser
##ssis
competences
Fox
rédigé
Constru
##hh
rajouter
allég
##ÉR
soie
##taï
Second
Siège
comptent
trio
##atel
directs
abî
Our
urbains
oral
##oignez
tremp
coé
concentré
Prague
##tens
shamp
disposant
anxiété
Abs
##trice
##oriété
validité
fres
ennuy
Sens
Colu
convertir
varient
privilégier
##ouk
artillerie
aust
URSS
##ocations
CAS
BTS
protéine
vap
organisateurs
rassembler
fév
##iterie
vitrine
saveur
##vance
##dité
NAS
##stein
##até
read
##euf
##ability
exposer
suspend
rouleaux
ham
livret
intensif
##point
Vice
##phy
invention
intermédiaires
##ako
bouddh
semblable
Vale
juif
encl
Effect
athlé
##Les
BN
improvis
Agn
inquié
Gam
Communi
bizarre
migration
respiration
occurrence
Od
gérant
modeste
##rones
Basket
causer
##yright
mater
colonie
rentabilité
fixes
enrichir
fière
Mondial
##Cl
thermiques
dénonce
accordée
bibliothèques
Soul
appréhender
archev
spirituel
créent
Cav
Lucas
Egypte
Internationale
Céline
volum
tromper
routine
soutenue
représentée
combattants
sessions
apparu
pertinence
invitons
Charente
##aily
crâ
essayez
##omer
poivre
réapp
attentats
impl
obtenez
Blu
Alexis
Space
Cole
##run
pantalon
violation
##ovol
protagon
composer
##fes
Ey
abst
Deuts
cesser
tristes
##inge
clan
##ONNE
ajoutez
##bis
Communes
##ilton
spectateur
souhaitant
##oriale
GE
revers
médiation
GM
réconc
world
parlementaires
débutant
tentent
Sortie
River
synonyme
transvers
animale
dépassé
Technique
enregistrements
##uscule
##orian
délim
manne
chaises
##ynamique
dieux
Bank
supermar
recherché
gene
foncé
assiste
automobiles
éme
OT
quantit
Cécile
réparations
tiendra
Fland
pais
##PL
##wich
Wiki
nuages
incluent
éducatif
Salv
Conte
liquides
mythe
manifestants
lès
coulis
##érin
résidences
complètes
viagra
spirituelle
librairie
déçu
##ralement
Valence
tactile
Résistance
sculpt
touches
cône
right
BB
Voyages
Ouverture
déterminée
Ernes
Afghan
##zabeth
héli
spectaculaire
Sent
Obtenez
impliqués
interdis
##ètent
nucléaires
Prise
##licopt
rouler
Idéal
manquent
##ionné
diffuse
Distin
regardant
intégrale
##oa
fiscalité
Pièces
Fav
cinquant
aménagements
sco
minière
faill
seniors
notoriété
primordial
quai
d´
##omet
séparé
Ottawa
det
##tica
Application
Wild
croyances
##kov
Commerci
isolement
dense
semestre
Key
chlor
fourniture
##mité
exposée
assaut
Peugeot
##quons
tatou
appellent
dénom
reconstru
##ticité
Droits
##hl
##sifs
réguliers
Moins
séduire
Soir
désin
ion
repouss
électoral
Bart
##ouches
studios
Pad
##irez
spécialités
décident
Vern
partenariats
chauffagiste
##culine
humides
##enci
obstacle
potable
##ongement
Dead
légend
Parall
##inn
résultant
NBA
plaine
Reich
##ceaux
##nale
passez
##asie
based
##ivement
arrêts
Edit
##rasses
voila
directive
développent
Termin
##mies
##ovation
panique
fuir
doses
fausses
Sat
crypt
paramètre
Athènes
Train
rapporté
raccord
licenc
confond
voisine
éventail
##rake
basil
ASS
##hor
bénéficiaires
profondes
Rém
accrue
divertissement
subventions
Youtube
CI
méthodologie
##cté
Mir
remarquables
lourdes
embl
cosmétiques
mettra
##cuits
clics
##mettent
rembourser
camarades
minimale
##oudite
Prot
redout
concertation
Tah
mineures
Mond
##ults
commod
Cord
shopping
##po
Asc
##angulaire
surement
Jau
ouvrant
prodi
boucles
illustré
révolte
Possi
##vert
Carlo
apparait
Mem
calcium
##velines
cure
discret
Interview
Giov
##tta
marchands
luminosité
Déclaration
Cd
Martine
sanct
Dernier
défaill
croissante
Oscar
meub
Zh
Ind
Tré
chocs
traitées
christian
Econom
coffret
arth
massive
excur
SK
intentions
assistante
chasseurs
inval
chutes
"...
##pool
comportant
hiérarchie
Research
croissant
souverain
brigade
Filmographie
Constantin
##ABLE
syl
entraine
##omon
intégrité
subjec
polémique
transporte
Sl
détient
With
considèrent
protégés
signée
superp
##olith
##avage
pressions
Noire
hiérarch
N’
hydrogène
pompes
brique
interc
doctrine
General
AVE
emporte
restait
promesses
orgue
##ör
Littérature
vêtement
brevet
exclusif
Nicole
Dossier
osté
bombe
tonne
autrui
Voiture
##riens
blocage
template
##urées
impliquant
nerveux
restaurer
Moul
survivre
couver
##reux
prestataire
bricolage
firme
espérons
##BL
excent
ide
concentre
Tai
##ogn
hép
modifiée
endorm
dri
recommandée
cylindres
humanitaire
##gio
Jazz
NGC
Bitcoin
faille
Mine
blindée
appartiennent
Coord
##otypes
moule
gènes
Acteur
coéquip
Clé
If
Baby
trad
primi
estimée
considérées
académie
bloqué
Hav
##ainement
Fis
tré
PLUS
##BE
levier
retiré
Lyn
aires
étang
moelle
Guadeloupe
Celles
##gènes
Nant
;"
effective
pénale
dames
bravo
##apit
##utant
##stems
écosystème
lames
énig
##miers
##lienne
Pâques
##rys
Institute
statuts
membrane
leçon
##ctif
empi
modernité
répéti
dirais
souveraineté
##viation
##for
##gné
attentat
tolérance
arrêtés
dévoilé
miracle
maintient
chorég
préférée
##orient
Composition
##read
sélections
chaussure
##alisant
clandes
genou
rapproche
##oyen
##iscines
méf
invisible
tige
repérer
impressionnant
Hubert
Loup
dédiés
##omorph
##cose
officielles
##ailli
Parfait
fréquentes
Cookies
Barre
plait
Rib
Chab
aléatoire
corpus
##ency
Centrale
Effectivement
Camping
quarts
superbes
Gor
suppos
croisière
psychiat
formée
Chev
COL
Story
abstra
processeur
Pod
##randa
##ultes
insiste
Amiens
pédagogie
Étique
##cker
##ÉE
tranquill
##unk
equ
Peintre
##arie
PlayStation
Town
l´
mee
##roc
Réd
remplis
perdus
réuni
Kle
angles
’s
chaudières
##tigieux
Afghanistan
Passe
brise
TA
##cut
##limard
actionnaires
Appare
environnementales
Fabri
PRE
auteure
positives
garanti
allié
##sta
##attan
cents
opérationnel
##zzi
##ométrie
##ifer
compositions
courbes
Rédi
durabilité
ratio
étal
##loween
Élect
paroi
,…
##èvent
Amp
anat
textile
rumeurs
Modifié
fosse
immob
##tesse
claires
retrans
bé
dignité
##mos
stopp
trouvant
Ever
flore
roch
Gun
amplit
pig
estomac
Laurence
##avel
Buc
Villeneuve
Barth
etait
##orés
janv
judic
Carn
hipp
réveil
##èner
abré
adolescent
définis
Naples
##ât
follow
Network
bits
##aks
élaborer
frappé
Standard
##ESS
##outs
##éremment
attendait
Sour
répétition
fraîcheur
vire
arbitre
épaisse
##ersey
dam
Thib
préservation
fragment
##radi
aviation
détenus
Zur
##ird
perm
formant
##umi
divisé
regroupant
Huile
##nb
##lettes
directions
Natur
##wen
##odo
Pinterest
##apour
##osc
##azines
##lena
couramment
masculine
##Hotel
sécheresse
##tiend
cotisations
dise
plain
##ypse
Massi
ms
##aku
Améli
approuvé
Libert
puce
Quentin
supporters
Hollywood
planif
##zel
Comparez
collectives
environnementaux
##TH
harc
Entraî
Fay
##rines
Continuer
initiation
analysis
embau
limitation
Besoin
insi
Fru
préalablement
poiv
tum
coureurs
urgences
multif
asile
##rano
clef
##ilia
ouvrier
spécialisées
MIN
##iane
##rash
vitres
Gallimard
abonner
##bons
attractions
Sylvain
Ny
Texte
##mide
Police
roches
Fille
assassinat
verbe
inspection
psychanaly
robes
ignore
##prud
##étrique
##ELL
consensus
##IRES
##ritz
tribunaux
##agh
vign
##tices
sonores
##ilien
Hyp
##iden
##mens
EH
religions
##appy
Miami
amusant
Haïti
uniform
zo
transférer
##ogie
##rera
##commande
rd
sociologie
SG
réorgan
##olitique
SL
centim
LNH
Reste
noblesse
Cau
renouveler
fournie
gardé
Boh
ascenseur
dispers
séparés
gendarmerie
recommander
consultations
##PO
bijou
cigarette
dessiner
##ouard
billes
##igan
Métropole
prévoy
Lieux
”,
lacs
Eve
##ablanca
puissances
réchauffement
extrêmes
Conseiller
Maxim
manuscrit
Tol
Charge
Equ
##bé
##ENS
budgétaire
Té
racisme
envergure
chaudes
##zac
prescription
nm
arti
versant
entraîné
Kenne
##rielle
junior
Martinique
idéalement
##orant
relég
method
hésiter
musicales
bav
panoram
animée
gliss
téléchar
aîné
devoirs
size
obtenues
mémoires
hélicopt
##itor
géographiques
isolé
)-
gile
Lewis
##ualisation
Origine
##ÉL
constitutionnel
creux
régén
favori
VTT
compression
##Book
géré
goth
deuil
Devant
combler
ele
Sites
annoncée
##eration
estiment
Justin
huitième
académique
détéri
dénoncer
Silver
compagnons
comparé
confortables
collier
permettait
VOUS
marches
##owski
dues
paysans
norv
British
Gram
jette
marty
website
##cées
més
RSS
Fly
Patrice
adhés
lie
maturité
napp
flexibilité
##isprud
appartenance
physiquement
Désormais
Andrew
entrent
Zen
vedette
successeur
Émile
????
Détails
##rakech
##feld
##quo
homogène
indirec
incapable
charm
Pales
incarn
agression
dépistage
##mark
muscle
Bulletin
##Fi
approb
Matt
vamp
républicain
historiens
Watch
colonies
écoss
adopte
coupes
Rugby
##orre
Étant
Pérou
Elizabeth
pê
mortalité
Nou
collég
vecteur
)(
##iants
Consult
mobiliser
pénal
some
élaboré
basées
coûteux
WW
Saf
urbaines
Mén
colline
judiciaires
ev
barbecue
prétexte
##chettes
conventions
posent
sati
biologie
DANS
Vladimir
végétal
encomb
##olaire
Isère
Exper
##BT
parution
Champs
Maine
Portrait
lente
grammes
##belle
Petits
##esth
##endance
BC
substra
anneau
dirait
ambitions
ener
##lons
Ivan
Occitanie
ascension
Conform
Lord
Boud
##viseur
quotidiennes
##ouvrir
ajoutent
tenus
tranches
Longueur
ambitieux
ravi
appliquent
XIII
ds
##urage
Altern
routière
Lionel
prestataires
FE
##rong
pesti
prélimin
Facile
##idal
after
souffrir
franchir
antibio
dup
verticale
##ACH
##senal
serons
changent
##fore
inspirer
rideaux
résine
##geance
##ask
sépare
vaisseaux
Stef
herb
Brook
guérison
Choc
##versée
accouchement
Présent
##udies
bleus
Stage
##pad
inspirée
Solutions
artisanat
impulsion
canons
WE
durs
libéré
Chrome
Parallèlement
annuaire
diesel
##ouri
##DD
visiblement
inflammation
indiqués
##fox
aborde
achetez
Lisbonne
SV
Mast
nocturne
inquiétude
Fact
##vois
bagages
échappe
apparente
montres
Offres
Foot
##ANG
Chinois
contamin
Cambridge
##esis
##orations
coaching
notaire
##list
reflète
##homme
Ron
Sorb
Pape
##calauréat
accroche
bénéficié
Essay
ira
##sey
SR
##angile
##fond
châssis
couverte
Chal
nommer
##Pro
Mail
exacte
occidental
Hur
continué
plates
sommets
##ompt
Chanson
##OUL
##itesse
dettes
identifiés
##actique
Personnalités
Cot
gardes
Indonésie
Secret
anciennement
rate
Fur
prolonger
##utt
exact
##page
Old
préfèrent
##érentes
##gou
assumer
Brian
title
hein
##autions
Havre
téles
##issa
souscrire
minu
Population
incertitude
Enc
Transf
Ment
synthétique
accélération
décern
Herm
##otiques
basés
nuances
portait
##ieusement
SAINT
affecter
##ONE
turc
##zant
admission
expérimenté
rentable
vétérinaire
collect
Bénin
canne
refait
##active
Libye
Médic
##ogg
EU
##issé
intéressent
absent
Sachez
Wilson
intégrant
EV
détriment
propagande
##FM
Volume
Song
Full
Columb
gui
##éf
guise
BBC
méri
certitude
littoral
Outils
lymph
Africa
vertes
,.
Leclerc
usées
influences
##aper
emblématique
Harris
pH
dépenser
inondations
##adier
##anais
rétra
Vik
Togo
dérivés
dal
Hautes
Excellent
rivières
##chain
##sica
préle
fréquences
##niste
immunitaire
##arly
noeu
Annonce
##aou
enseigner
rebelles
##roidi
Priv
célibataire
diplômé
Plate
fêter
##pez
théoriques
camions
impermé
citations
Écri
Explo
##aïd
ruban
Case
##uro
artéri
Bond
##ffes
innovantes
exclu
sélectionnez
Prime
##ycle
##pping
##rang
définies
ouvrent
autochtones
First
chêne
dynastie
Parisien
sélec
obligatoirement
##îtes
##tisseur
variantes
boit
designer
##zième
Marco
Ryan
##ESCO
impliqué
détaillées
sénateur
Gironde
intelligente
dégage
USD
##ortement
promu
Intel
Corn
##orisés
jambe
Peinture
pèse
toul
étiquettes
EM
marocain
interprété
Jordan
attest
fiscales
Charte
aéron
##dle
colloque
manteau
Nîmes
Kab
traversé
stimuler
silhouette
solitude
##asure
Accord
esclaves
voyons
parcelle
détermine
cherchant
loisir
tech
##cell
##ned
##idis
Wol
##assent
Bonn
##omy
plonger
Simple
flèche
Entrée
HO
ML
festivals
copier
Meilleurs
Laz
restée
Mette
armés
souffrant
##ungle
quotidiens
norvég
référendum
Fan
Vendée
tranquillité
attiré
##ônes
##cam
Ing
Sid
glyc
Ji
armé
:.
##itoy
diamant
photovol
hex
Eure
##érite
Piscine
Email
énormes
affecte
prédic
Energie
Mü
sécurisée
Serrurier
##ancourt
briques
Étape
gasp
surprenant
vivante
Télévision
Satur
Franco
*,
tuyaux
visité
dominante
Publish
déroul
.:
##nets
##ffic
##urations
sécuriser
##HA
poussée
fonte
##iev
glac
they
inciter
Gross
Bak
joints
Croatie
##ering
naviguer
medi
##ymologie
qualifie
##lacements
Seuls
##illac
Imprimer
europe
Zo
rédacteur
##OTRE
infin
UK
##SC
Ade
maigrir
extraire
Rid
Gue
Alan
pavillon
atyp
##athèque
vestiges
Découverte
évaluations
cage
antiv
Profil
Kos
bouge
souplesse
réglable
##aman
marron
passait
Ltd
lève
asiatique
raccordement
##ript
Clar
espérance
##stad
absor
patrimon
Fen
Vrai
##ourses
investit
rectif
##ïde
Annuaire
Core
aspirateur
lignée
quator
seg
libéra
recueillir
bordure
##kan
##entre
messe
Pit
Franche
##ingo
saisi
Savoir
témoignent
Gabon
épée
dop
costumes
déséquilib
Relations
avouer
powiat
##insule
qualifiée
capitalisme
into
nostal
Barbara
sexuels
Bébé
théâtra
dépendent
Tarn
intimité
silicone
##rate
interviennent
ICI
Climat
intervalle
any
prêtres
environnements
cend
phon
macro
antérieure
##gor
tamb
cambri
entreprendre
ajuster
inad
Project
Pratique
##tter
terroriste
##élect
entoure
accompagnent
##lock
Mille
casting
Mère
##tissements
##adé
Domin
décont
Diego
##uleux
approbation
restreint
##lux
boîtier
législature
Palestine
##zig
Hamb
Manif
algérien
##ENE
angoisse
bénéfique
##ticiens
Philosoph
hospitalier
Observatoire
##quen
##illent
bombarde
anecd
Caisse
refroidi
nuage
cinématographique
Lambert
idéologie
retomb
renoncer
##igéri
##aîtra
dégustation
grandir
Cuir
Metal
légitimité
Eb
##mbour
causé
XVI
commissions
Semaine
##xico
##ów
douces
reçus
diale
Aéroport
directives
##oxyde
localement
doubles
indire
âmes
finalité
fierté
Performance
feuillet
##lands
effici
opérationnelle
SW
)...
piège
Pul
reviennent
agréables
Téléchargez
anglo
pensait
Rey
limitroph
##dale
Pièce
##gons
Dépannage
Matthieu
ajustement
tenait
##isateur
recrute
bulletin
émig
monnaies
XP
trouvera
Certif
media
##oscope
Coff
activé
##zan
reliant
australien
Mons
découle
OMS
présidents
élever
contour
sénégal
peintres
Bry
directeurs
##aissances
Finance
pard
Recette
ruines
##diques
interlocuteur
déblo
Ingénieur
comparatif
enregistrée
végétales
isoler
Hamilton
trouvés
environnemental
##éville
multimédia
Gay
Menu
créatures
sexualité
tantôt
Fore
Western
##sibles
Poitiers
BI
Utilisateur
fermes
pelouse
biographie
Rochelle
visualiser
Arte
podcast
rencontrés
richesses
parap
##ciplinaire
script
view
Objectif
voudrait
sois
expérimentés
##QL
vierge
marqués
intercommun
through
illusion
Rain
lact
causés
##igi
Extrait
MAN
apports
Marvel
transformations
##lica
Ség
##agone
##émati
brésilien
Règlement
analys
excellents
##star
##ikh
loy
relaxation
Connec
##ming
radical
##veilles
##onges
Rai
##ëlle
Cœur
Perp
Ferrari
travaillons
révélation
culp
mystérieux
##èdes
Sib
inviter
mythique
Dri
calculé
Raphaël
prouve
découpe
baille
##tissent
trajectoire
passera
forter
##trer
##essa
##uli
Louvre
how
visages
##riste
Tiss
##quisition
Dég
entente
regroupement
Ferrand
phares
prestigieux
Care
suivis
IX
##imi
##seill
Jet
!,
stip
Landes
Évé
bapt
accueillant
paradox
Plomb
rame
Oper
##MAN
jurisprud
##ortier
caution
synthé
grotte
pluies
invo
incontournables
harcèlement
sar
Ier
odeurs
Bras
confronté
zinc
possédant
Répartition
Thi
amer
molé
Marrakech
##etti
Mack
cest
Britannique
pulv
embauche
Share
Autorité
sédi
impériale
##ixe
allemandes
##ogramme
amplitude
convainc
px
recevrez
##ffer
orientations
Syd
Academy
cohésion
Casablanca
délicat
préd
doubl
##enz
revêt
MD
##glas
absur
Située
Brigitte
SFR
sublime
##amorph
##istante
##hire
para
##restation
gmina
##oku
gor
pertinent
Health
concession
réglages
during
Innovation
élue
créées
regardé
coureur
##érone
archéologique
##aliment
renforcé
relier
Herz
Mee
équipées
autorisée
clefs
DN
isolant
had
Fel
##énager
Major
Gand
exploit
Pharmacie
pathologie
distributeurs
paramét
conviction
pathologies
créatif
escar
polonaise
European
Gou
dj
sobre
##atican
vives
##mbert
correcte
éphém
lâcher
SY
##agage
terrasses
##PER
confes
Fall
coréen
##venant
archevêque
indiquée
RAM
##iaux
communautaires
imposent
tribu
airs
dog
incapacité
terroir
Faculté
Jura
gares
aveugle
Décoration
pensons
copropriété
démographique
favorisant
Kre
combiné
plaire
visiteur
disparaît
vanille
##drez
décalage
Taux
adolescence
##émar
##OUV
Challenge
fièvre
roulants
##ylon
médailles
event
Davis
##igné
Points
avérer
Histor
flo
relancer
##yne
devrais
anticiper
répertori
Annonces
Armand
enchères
##amba
##ursus
##lure
sensibiliser
check
colomb
cc
Search
suggestions
actives
voulant
visent
##érèse
ambigu
##dan
réservations
enzy
Études
locataires
Seule
Intellig
##over
attribuer
prononcer
##heimer
Qatar
##orisée
Voix
composante
doré
dim
pots
efface
Last
##oen
médiévale
Forces
list
québécoise
approfondir
cire
dira
modernisation
Limoges
minier
façades
##émas
Olympique
##fr
Kate
##onneurs
catal
sculptures
suspect
appropriée
implément
manifester
Gord
inédit
symét
habitations
rigide
Lake
arrivant
LR
planning
Aig
Aim
postale
Vegas
oh
Instru
Rej
Pokémon
##lèvements
GB
Bonsoir
fixés
bross
fous
Cercle
partent
cousin
charpente
féri
mathématique
couloir
Trésor
Resort
construis
prélèvement
maternité
vigilance
dégager
##ronyme
##onnaise
considérant
piscines
Boulogne
##lante
##avis
désirs
MB
##orum
##mal
justifie
}}
Autour
frontal
##inateur
barbe
volontairement
##acht
Beauté
##atite
réputé
athlète
pharmaci
complications
teinte
Proche
pronos
Mémoire
Ling
ete
élégante
redéc
exportation
hameau
archipel
cinquantaine
Pages
Cabinet
impressions
very
Critique
Baz
##sson
cataly
##ousser
##téb
reporter
Pakistan
Miller
...,
résol
Antiquité
météorologiques
##red
cod
interpréter
Ibid
produites
##pine
recourir
##stom
boules
baron
##Sh
Zi
insuffisance
QUE
voyageur
Gent
rende
Découvrir
figurant
##acon
Ceinture
Avoc
dépour
tib
remarques
love
people
suisses
UNESCO
Lycée
touchant
vil
Yvelines
affiches
mondiales
comparateur
radiateur
synt
affiché
pêcheurs
##ôtres
représentés
Galles
Recettes
malveill
##tan
défunt
solliciter
##aute
inclinaison
##cessions
Réservez
gîte
etudiant
reçues
flag
##GR
divine
opposant
baseball
éteint
##dide
désignation
##oules
##TF
confrontés
DEL
naï
AVEC
pv
imposant
##pan
Aude
irrégu
juil
##En
escalade
menus
ott
génère
Œuvre
sûreté
manuelle
rage
séduit
négligeable
variante
bous
mystérie
authenticité
vraies
éclairer
tarte
étanche
Hop
genoux
élargir
supprimé
barrières
ridi
Bomb
organiques
Collectif
Nan
dors
Canadiens
##orgie
Obtenir
Renaud
frit
rassurer
plateaux
socle
##ïdes
##ionnage
Dem
couvercle
##vide
retire
prenons
volati
aboutir
##animité
capill
magazines
budgets
augmentent
périphérique
self
télécommun
tournois
succède
Asi
##ommation
##DL
rétablir
incarne
occupée
râ
add
Pix
toxiques
appréciation
diplomatique
Quelque
##érait
indienne
##sières
Amis
##iscount
boss
Espèce
soumises
Plat
géométrie
Contenu
passes
##ilée
##ibil
Cadre
##inales
Planète
##TIS
Rappelons
##mette
Document
##kt
##TM
Astu
placard
porc
suffrages
Etre
assurés
Forme
accompli
carrières
revendications
départementales
Ain
esqu
monstre
chargeur
Bron
minuit
##breu
sentent
Occup
Singapour
serpent
transféré
Conclusion
gluten
##abe
immobilières
Rapide
Boris
Ps
règlements
anorm
belges
##rena
inédite
photovoltaï
Rén
sèches
socialistes
pérenn
attendue
##iron
leg
##erait
baby
alpin
Habitat
##chs
leadership
##olin
alias
XVIIe
Intervention
anges
développements
GL
exh
Alpha
auber
musulmane
enr
chen
incidents
mutations
##ousses
##idou
inclusion
fiscaux
surnom
consignes
redonner
titulaires
CFA
Dick
Halloween
Abra
astuce
##room
zoom
immersion
slog
Insp
évêques
").
##lateur
municipaux
habituel
##queurs
fontaine
##éon
##loc
Low
crochet
Utiliser
##arbon
sortis
neve
consolid
cocktail
collecter
##lieu
Zurich
Fron
renforcée
Sex
italiens
consoli
cuisiner
chemise
Valen
##tet
interdire
Bosnie
Nich
basque
décentra
##olia
Assistant
Quint
sonde
##alisateur
nécessitant
Ernest
##illères
millé
##lips
négatives
Kath
préférez
food
significatif
trouvée
démarre
extin
Det
Annuler
Province
qualifications
préjudice
courantes
Food
Gol
chants
différemment
réalités
##lovaquie
demandeurs
fréquents
##culent
circuler
Longue
##onnet
approcher
philosophique
paires
##énique
élastique
professions
Pren
##tère
sprint
rituel
championne
exon
##views
##omé
audition
corro
échang
##adine
blue
souvient
##ardes
Conformément
complété
VIH
trophée
Ahmed
garn
géné
Restaur
Évolution
lauré
Coque
##bot
Sélectionnez
enregistrées
parlait
simplifier
Besançon
serbe
déroulent
Écrivain
Changer
People
céder
##iko
limitées
THE
inox
séc
##ressé
imposition
##inette
écrites
##ving
##icon
rhum
récipro
width
entrainement
Explorer
naître
Under
canada
Plant
forcer
souffrent
VR
acquise
honoraires
discrétion
##irac
Choix
prolonge
illustrer
Anat
Dream
envoyée
inspecteur
##ovine
Liberté
infrar
##mix
bruits
##ertainment
wp
pertinentes
##lag
Merc
Ferdin
sculpteur
premium
attestation
Cyril
enquê
méch
Connexion
Potter
candidate
candidatures
pond
fouet
sémant
cirque
recommandation
gène
fautes
battant
HS
Allen
##versible
LP
stop
dangereuse
occidentaux
##tings
Hein
éclip
Annie
##athie
propreté
proth
incontest
févr
propice
ivoi
approfondie
Chauffage
Stone
vendue
cassé
débord
appétit
peindre
périphériques
élan
extensions
prêter
Bey
compétent
gardant
Giovanni
Lucien
dynamisme
handicapées
Lil
maçonnerie
topic
Etude
Ther
bond
fitness
Remarque
comptant
missionn
Couverture
##Voir
compensation
hur
ecc
control
dragon
Traité
récompenses
Cyc
Square
surveill
gentilles
prudence
##ettement
##KA
arômes
infirmière
réglementaire
Caraï
##uriers
attaqué
Mob
osse
there
bâtir
contrepar
irlandais
Vatican
##iac
indemnité
##aim
domine
Enregist
tier
Vosges
épidé
Fres
?,
Vo
cartographie
Dat
appelées
couliss
##ordogne
Course
retrouvés
réglementaires
Relig
condamnation
concentrations
dépense
rafraîch
posées
sourc
Has
travailleur
##tresse
Agnès
invol
Ene
##aver
féc
Chen
Vivre
##moiselle
Shanghai
##cycl
pluvi
CAM
piliers
##stanbul
Soc
tranquillement
Géorgie
##rure
coïn
aurons
rachet
noci
SOL
##CC
Stratégie
soja
Zoom
break
fondement
Bed
interrup
##MES
contamination
lésions
remplie
##ISON
maîtresse
Program
communistes
Vas
volon
Vidéos
##mif
avantageux
##ousie
Envoyer
Nigeria
signale
traction
##berry
pourvoir
solitaire
opère
cis
AE
Chel
ouvertures
notification
Pros
##ocytes
Préparation
##copie
dérange
Printemps
##wal
Véronique
pans
conformes
concrètes
arran
acqué
expliquent
Bain
assureur
##press
mentionne
indépendamment
ancêtres
engagent
Batterie
inoubliable
grippe
bornes
caisses
diable
Troy
##anas
menant
records
silencieux
##vette
Montagne
opérer
COR
échéance
parfums
Elisabeth
Syndicat
&#
équitable
##allery
Logement
Bass
##tar
compenser
Opp
bah
##isseurs
##ocratie
##trages
collectées
réhabilitation
aube
Magas
##tises
prétendre
mariages
##hon
confrontation
risquent
mena
diagnosti
##oté
capitaux
##oplas
ambul
Hart
demeurent
##ema
##orps
délin
Cyr
vides
révèlent
##inant
avr
##ulum
##tigie
musicaux
tape
rapprochement
##oncent
Guyane
développées
manipuler
compétitivité
fondre
Adrien
autonomes
##raille
GN
##mettant
croient
##abiliser
Commenter
Atlas
gastronomie
CER
clois
athlétisme
araignées
##ized
Jap
weekend
robustes
bulles
finesse
##iet
day
Vêtements
panc
##atible
Poutine
pesticides
forcé
cantons
Sorbonne
clause
instin
##chable
sombres
Presses
éventuel
raisonnement
##utrition
##umés
OFF
unanimité
Schm
retraites
VIII
short
Jay
Tod
)[
Cry
Mit
Gaston
Hôpital
Tig
emport
##ablo
interruption
passions
CRE
Sydney
rétic
Équ
réint
Quartier
documentaires
watch
lion
##atus
réduits
.(
amov
donnait
divisions
dissolution
Magic
orthographe
PRI
##tag
##DT
Japonais
Républic
perdent
Copyright
articulation
Danse
anarch
regardez
##oon
algorithmes
remplaçant
Aire
piles
Élections
China
ministéri
omb
chaos
Dauph
Meur
compatri
fout
Dro
Augustin
équiper
substant
touch
imagerie
Rouss
##sea
cialis
fréquentation
Structure
faillite
affirmation
File
Honor
masses
célébration
##otti
remédi
full
Traduction
##tember
;-)
subvention
prototype
légères
ramen
intérieures
##oid
ado
apportant
##issages
##UD
précautions
liaisons
revis
flamme
tronc
##teil
diap
semblerait
Classic
Dh
exposées
arrestation
Lance
terrib
filières
Kris
Guit
such
dangereuses
VER
multiple
impératif
semblables
track
Fro
dresse
charmant
pénétrer
when
##ene
Whats
danser
##œux
tchat
dominant
##adelph
constituant
azote
requiert
interprét
Vélo
Heb
panel
sque
Inscrivez
##ás
Women
concernée
tril
valent
estimations
Orchestre
téléspect
empar
Alimentation
payés
##uie
postal
nutriments
engrais
livrés
accusations
personnalisation
fuites
##osp
Isa
approuv
irrig
Faune
cases
Crée
sauvetage
##urch
lampes
affirm
diplômés
treize
dus
FRAN
##alettes
##clus
accuse
##oka
##LM
aménagée
vidange
exceptionnelles
terrestres
madame
Cf
perçu
Vars
##gnation
escaliers
inauguration
contradict
ressemblent
coloniale
natale
dést
##neaux
Download
portion
impliquer
rejeté
vignes
sophisti
licenci
##cean
##hydra
habile
successivement
##ober
##ophonie
compétents
vus
VA
Impact
marier
land
##agramme
combustible
##eriez
devise
Mois
##urity
Evolution
lapin
##adig
téléfilm
désastre
randonnées
Pauline
Confédération
esclavage
convivialité
Carrefour
surmonter
##iquement
##ouin
lus
(*
##uaires
volontiers
##veillé
apost
multiplication
jo
Speed
cauche
copies
McG
Venezuela
##lysée
Nag
Coronavirus
inauguré
Publicité
##éralement
cancers
Shin
Colon
tragique
divul
Girl
Georg
pairs
artisanale
Boc
bassins
manuels
##ictures
secrète
Offici
APP
JOUR
satellites
combinaisons
fondamentales
##eta
Philippines
confr
Commiss
œuv
polyester
toiles
Appro
attachement
Dent
MT
##tus
Just
généreux
where
indén
déménage
##hen
cursus
cacao
Market
##odore
sensiblement
VE
appelait
Navigation
Great
Contrat
tombent
précisions
recruter
##érante
Agent
chausse
natation
voyait
##angerie
Bin
rus
Capacité
péninsule
retrouvée
##ovas
colonisation
Consid
##ocus
entrant
Chim
spira
indicatif
coupure
repartir
jack
Kent
inutiles
psychologue
imaginé
##arisme
adéquate
Forêt
inhabit
##TIL
parviennent
carross
Christopher
##ineuse
##lli
cession
##ressement
centimètres
Édition
Thérèse
télécommande
Conservatoire
christianisme
Process
##rités
disciplin
héritier
Ancienne
##wig
##eront
##ex
each
Nie
tristesse
casserole
lex
misère
Jos
aéronautique
comparable
engendre
##mest
Biz
Leu
fonctionnaire
effor
Crist
Urbanisme
décorer
flanc
Sty
gigantes
##tems
##issantes
civiles
##ratoire
##lius
fondations
##lign
chouette
Lucie
œuf
Single
What
Adri
conçues
amélioré
défilé
ressortir
##uniors
Cover
incre
Ciel
,,
diplômes
Ran
corporelle
sûrs
sacrée
scolarité
correspondre
nou
requises
groupement
##holm
consomme
répéter
ordinaires
##ller
uni
Jacque
Affaire
##drey
validé
Languedoc
prairies
##avie
prenne
##mets
gau
##erter
Valley
glisse
facult
##ickel
décline
chauds
versement
orienté
fumer
gravure
amies
foncière
allocation
Hérault
Jar
##cass
Florent
##SION
disons
PRES
District
buffet
prag
Céd
##cieuse
##érément
prioritaire
Jr
denses
better
Puisque
Hipp
##tiver
river
Queen
Aus
Viole
récepteur
##ênes
prolongée
Expert
abouti
exploitations
(,
fluct
Départ
agrand
compléments
Footballeur
Usine
renouvelable
maintenu
pochette
allais
M'
Kra
##ongo
suscite
CES
##ulu
##mination
##olore
surg
requise
sondages
SEC
embry
Notez
Dordogne
comédien
##vente
background
##orf
nettoy
impeccable
moines
baccalauréat
comble
##uils
ados
Anonyme
classées
précisant
attendus
GAR
nue
assu
châteaux
##aumes
irrépro
Alt
remplissage
##olle
SARL
vulnérables
Mate
##ën
##idjan
Lomb
tons
adressé
traductions
Tennis
saumon
##jectifs
paroissi
##dépend
life
Dates
séchage
marteaux
##FI
réci
##ATIONS
définitif
écris
perce
primes
Euros
tactique
asseoir
BOU
##opée
proposera
Sauv
tribune
artérielle
Changement
nid
Istanbul
Mohammed
##osés
entame
Panne
souscription
annuels
automatiques
induit
sodium
##aging
évalué
municipalités
lass
Audio
positionner
##garie
afrique
métabolisme
gazon
pirates
##roise
collis
risquer
pardon
fasc
Régime
précieuse
##quez
Heures
intervenant
sv
finissent
resse
##lv
rappelant
Sak
régal
mentionner
History
Cul
déroulée
archiv
imposée
écra
veuve
respectueux
emprunter
See
Rig
POL
##upp
éléph
rides
Coucou
Anvers
montants
exprimés
##ésité
Brad
##wi
kar
prestige
##akers
Ferdinand
##vions
effondrement
Feb
préoccupation
départs
Mettez
procède
abeilles
drone
Fabrice
##DP
Frais
##geur
entraînant
complicité
compagne
soldes
touchés
pères
brûler
collèges
##avy
monstres
Artiste
Distinctions
##aqu
omni
##ïse
Ord
pourrons
IMP
##pot
NC
Stéphanie
Vig
Hass
saints
##nois
Grec
Canon
Hitler
traditionnellement
fragiles
well
Technologies
dauph
##ersbourg
##édant
exag
Edouard
Apprendre
légendes
arist
Précéd
binaire
Philadelph
##alla
XVIe
Personnellement
géants
wikipedia
order
Arg
récon
aéroports
remises
carrefour
électricien
##rentes
Perpignan
""
marquis
##travail
Tut
marocaine
##HL
##icatif
réduisant
avancement
Consulter
##icaux
Coach
protocoles
\'
lucratif
finitions
!),
Maman
Annecy
nef
Librairie
##ïd
races
##pré
haï
recherchons
download
Kenya
gâteaux
prouvé
jurisprudence
armoire
sociét
pédi
Rw
##alisent
FAQ
Jason
déterminant
##ouz
chirurgien
##igneurs
##adia
péché
personnalisées
Gamb
Paix
Petites
Cay
Assurez
credit
Sho
coinc
good
##ternité
Now
anesth
Corporation
pcs
##ulus
coloré
fossiles
##ulteur
##dex
##stone
scie
fusil
découvri
##atéri
connaissait
dérive
##quins
Corne
allaient
poussent
ile
##ged
orph
Frères
Hyper
Victoire
rechange
bottes
phyt
indemnisation
itinéraires
wil
Entertainment
compatibilité
organisent
##taire
restés
antid
Jéré
Kay
bais
croyance
##vol
cassation
traitée
légendaire
##cp
convivial
entends
pixels
amazon
Options
##FE
éclate
sécuritaire
##craft
désactiver
concret
transmet
ose
API
repres
##uset
Spar
régulières
##tissant
Budget
Rense
horloge
##fo
aidant
##rone
pétition
fouilles
review
##KO
Turin
##ahn
most
Junior
HTML
##ilice
Alz
##resses
bouquet
théologie
confirmée
rô
identifiant
forteresse
déployer
territorial
##ctorat
##raisons
tét
##wards
Coran
combine
##irts
Exemples
consécutive
##ophile
Canton
marti
flou
gentillesse
guitariste
dévoiler
##bury
##ports
connectée
Pedro
Juliette
trésors
dévast
occupant
oignons
grimp
Trou
mâles
maximal
congés
context
platine
abondance
litre
Citro
Rodrig
##tick
##erg
connaissais
Catalog
Mécan
crain
see
Machines
ores
impatience
Fais
déconne
adeptes
Jup
##hs
##dialement
peines
soutiennent
borne
insérer
décour
##cord
luttes
cells
diminué
sanctuaire
propul
emmener
résiliation
##raide
nois
caric
israélien
##yan
##timents
baptisé
infraction
innovant
confon
Typ
conjointement
number
Navy
brefs
##ector
Magh
étudiés
Rê
arn
##awei
Vision
reçue
##cies
Surface
granit
violente
mépris
##vus
achevé
triangle
##aël
Suivre
évitant
déception
élémentaire
Outil
##opes
mosquée
tan
amiral
Crois
##ocide
devais
gh
##ophy
connaissons
trajets
démissionn
Moon
réperc
##Un
##FO
cellul
crus
##uage
déformation
offertes
déclencher
##iera
##atsu
distinctes
baptême
financé
Jamais
distribué
intellectuel
”.
Laboratoire
gothique
choisissant
##guay
:-
Yah
reviend
douloureux
Animaux
mineure
OTAN
massacre
Gaza
contacté
abandonne
Bénéf
covid
Damien
compilation
plugin
##visibles
éloigner
##DH
Duf
##sses
Bull
aimerai
déroulera
exhaustive
##ulter
Newsletter
Villes
body
Rent
Gauche
Derrière
Anderson
Garantie
métrages
explicitement
ral
##chel
##etta
Cart
escort
Volks
GA
thérapeutiques
oignon
must
Franz
réclame
Nobel
##aca
peupl
##ön
formulation
baroque
murale
héroïne
dating
learning
comptables
Yoga
Étab
expliquant
Shop
interdits
déroulé
percevoir
stades
nic
précieuses
excessive
##afil
lentilles
chaleureuse
Agenda
Comments
désint
Dog
frapper
Caléd
enchant
##orment
Physi
Boîte
foulée
scel
indépendantes
Mann
confère
encycl
impuis
portés
FIFA
interprétée
dément
boue
cafés
Animation
influencer
CHF
comportent
galeries
Méthode
aménagé
loyers
vietnam
protecteur
Simone
Tandis
##strations
cinéaste
chalet
consist
##licite
##ulli
détourn
vœux
hot
transformée
Bruce
pôles
ferai
respectifs
##onnaires
impasse
molécule
patrons
##bag
olig
##illas
##missions
Parf
Catalogue
énum
interrogations
merveilles
##dad
Steven
censé
prostitu
bouchon
Paulo
##conomique
results
Brit
transcription
Restaurants
collines
##lain
prost
Gonz
ay
voyance
real
visée
remplacée
litige
##ads
huis
##aissait
BAR
attendais
connexions
glucides
##opol
Dynam
print
grad
déposée
hauteurs
Tang
##arienne
##gédie
Pose
couvent
étroit
##Et
##clai
##aleine
IGN
réactivité
jouet
Démar
##acée
appelant
quatorze
impossibilité
Gustave
Modern
affirment
licenciement
Augment
administrations
cachés
Dut
##étisme
Simp
Ski
##adal
booster
Mour
Thor
prescrit
Hz
##luents
Envie
descendants
appliquées
##IES
Comte
DIY
##uret
africaines
Infra
##OO
##vième
initié
Abraham
innovants
défect
donnez
Baie
Lex
##ensées
évangé
transporteur
engagées
ot
Wo
éprouv
upload
aviez
Firefox
emplacements
émotionnel
##ERE
Easy
libéraux
Grace
marais
pertinente
Circuit
LinkedIn
assume
##SL
GRATUIT
Ride
##boy
répan
excellentes
tang
Xia
seins
poursuivant
##olphe
compliquée
impressionnante
poul
##acien
##gerie
Demandez
médioc
voisinage
##tide
Map
Nathan
dalle
Friedrich
##amation
donna
séparément
##cale
évidente
pts
repli
##De
allume
##umage
augmentée
boi
évoluent
DL
croiser
signalé
Sound
lor
exportations
abonné
##viève
DM
##under
##ologistes
inspirant
staff
sortira
dérouler
aiguille
pinel
nobles
écarts
ravis
voisines
surprendre
FIN
##copique
susciter
publiquement
##wald
ordonné
crê
Clark
Activité
Plu
##ogéné
breton
##risme
disais
plén
planter
bienveill
réaff
pianiste
inférieurs
##issants
##dr
inventé
contenter
inégal
##voy
##vais
alternatif
Mobil
Switch
##ramide
déport
##AIS
##yen
embel
Nettoyage
exclusivité
Lef
##vens
##apest
commençant
dosage
précaution
Reuters
Sap
frai
fragments
##ingen
##oriels
évap
alb
vérifié
bataillon
minimaliste
tuto
##acées
Diagnos
Médecine
##yre
détect
animer
ARN
Roth
répété
Prim
anony
Calendrier
##kn
généraliste
guérir
contrôlée
respecté
étouff
configurer
Import
##olic
généré
mondialisation
Bulgarie
segments
Dommage
##info
aimait
brièvement
##gente
spécificité
cav
senior
quartz
MW
animés
Adobe
Annexe
##geoise
Raj
entrepris
compétitifs
Marsh
équilibré
Technologie
méta
Jersey
motivé
blues
sucré
innomb
équilibrée
construites
maritimes
libérale
éping
MAG
formateur
##indres
Down
##œuf
Spring
##oots
commenter
Possibilité
marteau
Toile
dic
##FP
mentions
hongrois
vom
tramway
Jimmy
citoyenneté
supposer
##opold
potager
explicite
addi
Johann
dessinateur
##erbaïd
Cie
Sz
quelqu’
rurales
##UP
stagiaires
craint
endurance
##isons
##uch
##dile
repasser
étroitement
Marin
##alisez
ecclés
servira
éleveurs
lesb
##asi
censure
scanner
##aillement
competence
décoré
##hum
Calv
##OND
Rédigé
##nil
##erbaïdjan
émancip
POS
Rick
Liver
estivale
gmail
##linois
Promotion
définitions
ambiante
intégralement
CHU
##nait
Ore
hack
tomate
performants
##ello
Julia
poules
schémas
Fabien
belgique
mariés
Professionnel
autel
ticket
Hann
orthodoxe
Kol
Candid
annexes
Howard
##olesté
çà
Yan
téléspectateurs
prenait
Pors
maréchal
Lour
Licence
bourses
brillante
précur
Card
##cherie
dotés
enseignes
fournitures
effacer
Douglas
Party
devienne
parfaits
TOUT
attribuée
apportées
##urn
##olio
signifiant
Méri
résiste
craindre
nommés
##sile
Mare
décrites
Carol
Varsovie
##atisé
Assistance
Index
résidus
Notons
light
chari
Européens
##usions
inquie
trader
##tendue
Gener
SIM
Ambassade
##rock
intenses
ABC
finis
affran
##technique
copains
enlèvement
Actes
multiplier
champagne
Start
!.
situer
innovante
crucial
financements
AA
Fair
Freder
disper
##rief
##estyle
jolis
reflé
##SP
##onnières
Lecture
Pure
volley
Solution
##alia
sauvé
lisez
Break
armén
relèvent
country
marathon
##ortez
assises
##êta
repères
nickel
Geneviève
Kelly
communément
Francfort
##icule
dort
hospitalisation
oran
restruct
vraisemblablement
notables
necess
résistants
Invent
##tivation
##acre
##duite
croisés
conviennent
Aires
longueurs
entourée
menés
Tob
##itures
marquant
Asp
Cédric
levure
brod
Rail
aménager
Concept
##AUL
opposants
importation
psychologiques
soigné
détresse
##worth
SAM
spécifications
moindres
calib
Soins
##raines
devises
CONS
intensi
Abidjan
##onia
della
##mund
##wagen
Gérer
développeur
………
seize
chine
Toyota
locomo
minéral
emmène
Pinel
##TIV
Slo
généalog
##HO
néf
CT
Essayez
Berne
housse
jai
inters
##oids
##ilience
led
##étrie
carreaux
licences
Sad
flat
##ography
parach
recyc
Verts
Honda
administrateurs
##oncés
Islande
Romains
carrément
species
##titue
émin
Neur
pelle
##oua
mono
Vérifiez
intellectuels
Lal
##CR
notable
##olles
##ilo
acceptable
Rousseau
##fri
cascade
Chaî
policière
bougies
##liquer
Mines
books
Pes
##cat
infrarouge
financ
Essai
Parking
crayon
aiguilles
vivons
lisant
pull
{{
redes
Koh
ga
View
agressions
Étiquettes
portées
##ésium
balay
femelles
Rasse
Collab
coopérative
Drive
canadiens
linguistiques
contrepartie
Contexte
##kar
clarté
##ORD
##thers
##gez
multin
Vich
Récomp
Bog
plaisirs
Dos
SOS
##rous
localiser
Earth
modération
Baud
##insh
Prest
gêne
souches
réveille
##nais
éveil
contestation
analytique
##ilat
modifie
cameroun
Lampe
fournissant
Price
légèreté
lycées
respiratoires
Ras
sapin
partagés
protagonistes
Personnel
restriction
bloque
renvoyer
mangé
name
scep
décorations
fragil
Lisa
sig
##ilés
lub
Charle
discrète
brève
interpel
Témoign
##onance
collaborateur
nas
améliorée
##iva
.[
market
##NO
motivations
##aques
hip
percussion
Aver
ii
protégées
gage
dénomination
excuse
constitutionnelle
ressembler
entretient
Vanc
##lete
Restauration
Nak
insou
##jac
reproche
##alies
descendant
Pati
contex
serviettes
Santi
horizons
recherchent
##érapeute
établies
##oya
##date
cavalerie
Housse
comités
créative
prestigie
aiguë
satisfaits
chères
Ub
accrocher
##amo
échelles
Calédonie
##contin
manuellement
##iait
prê
minorité
Jolie
Opération
affirmant
Cine
tuiles
clairs
trésorerie
projections
entiers
Ign
progressif
##otechn
proportions
##orio
Geoff
Plutôt
Passer
engins
Wallonie
##CHAR
ador
parcelles
Bijoux
##tella
frigo
Mong
aliné
hypnose
réveiller
##cet
transc
##omment
pasteur
views
##lau
compost
Reconn
Pent
carottes
Active
mélang
Américain
Techniques
Garcia
habituelle
cauchemar
dentelle
Îles
##ÉLÉ
sinistre
##tigm
séparée
bénéficiant
clocher
admettre
Fabricant
impul
##LET
innombrables
Partagez
détenu
##ellés
familiaux
##olière
Séjour
:-)
cœurs
bâton
remédier
défaites
Roh
MAC
facettes
##ygues
Caraïbes
##écéd
rénové
Lock
paisible
Tapis
ravie
categ
##eri
##shire
Impossi
jupe
combiner
gestionnaires
isolée
caill
cultiver
Cob
Scar
Tchad
temporairement
instantanément
Grégoire
pratiqué
conversations
remède
Océan
##andro
##ternel
taper
désolé
Eva
##bet
sollicité
papillon
##gets
Synth
RM
utilisations
Coton
organisateur
MAT
##door
duel
Pétersbourg
imprimés
cercles
plantation
##ousin
annulé
certifiés
Hospital
Blues
AI
Dén
##élien
Bib
galaxie
grandit
expul
##last
broch
Path
miti
Glen
symph
parlons
Amaz
Vénus
parisiens
plaintes
Soudan
Paradis
Trava
convergence
corn
appelez
##tenay
Buen
musculation
level
Nouveaux
israélienne
atlant
prisonnier
simulations
obésité
Roussillon
gyn
trame
missiles
##quaient
pulmon
Urb
Hell
##utable
FIG
gouv
cherch
Grey
##är
Membres
Malaisie
personnalis
équivalente
##ery
Audrey
contrôlé
##TES
Recomm
Passion
Budapest
##loyd
Portail
contrôleur
Invité
ny
img
##aïa
cendres
DIS
créatifs
Hauteur
Encycl
android
Boute
pâtisserie
Daily
aspiration
chasseur
Kind
##énavant
Fix
##ierra
enco
product
##ouses
rin
consacrés
##ationales
apprenant
patin
déce
Battle
Bush
Rud
équations
archéologiques
##ills
optez
Lorient
Sociétés
limitrophes
Must
Marina
borde
planifier
plaisant
suscité
confondre
voulaient
Résidence
incompréh
##ocket
Kun
corrélation
reconnues
lomb
##izer
SAL
Regarder
##agistes
hormones
résumer
repère
moulins
isolés
Ais
Scul
##ostat
##ictions
poire
requêtes
##usée
Symph
cachée
reprenant
résidentiel
cassée
drogues
Chronique
Ral
tournées
dictature
Lens
Reb
polar
Proté
mortes
tournent
prudent
Mous
##aft
photographes
Ouvert
installées
dialogues
Sea
JP
relay
##ause
Els
observés
mâchoire
allés
##ilipp
Catalogne
Pare
avancés
antioxyd
respiratoire
vibrations
intempéries
réparties
##deau
pizza
Étude
Kid
##ignez
chôme
Systèmes
Andy
placées
héré
Brass
Côtes
Tau
sirop
##gro
##ducteur
wal
plumes
Caire
Prote
livraisons
Ster
défenseurs
incen
them
##ordre
Moore
Portable
Bloc
chinoises
Philip
Gagn
opté
archéologie
Poit
posts
Colin
LM
exécuté
raté
fonder
rétract
briser
Médias
cyt
hélas
allaitement
utop
horlog
pencher
Messages
vibrant
individuellement
puces
satisfaisant
nique
violents
tragédie
CAF
notation
##oln
particularités
Kas
RDV
##endeur
prolongement
pilule
turque
cordon
tutelle
proie
Roule
singulier
Occupation
Technology
##adh
comique
jusqu
redémar
Yu
house
semelle
Benz
Buil
pénètre
variant
##HS
utilitaire
soudain
##onien
mandats
##zu
##mption
Cyber
forex
panoramique
envisagé
trott
transparente
illimité
délégués
Expérience
délicates
Lili
##inne
paye
##AUD
rendra
##rion
Aménagement
sir
##avière
recueillies
reflet
Stu
statues
asiatiques
Secteur
##aus
consistant
.]
guidée
Demain
authentif
commença
virage
interse
Comprendre
valise
gammes
##mic
Cadeau
byzant
Rabat
make
Rédaction
conservateurs
Arist
duré
##uisement
Original
##rateurs
jeté
##eder
diplomatie
Tradition
##rative
kits
##bois
haric
##celles
##teuse
##adan
UC
Italien
##actif
vache
successives
prévenu
UA
##onent
##érien
##enger
survenue
Confort
jud
rayures
Toponymie
Pira
Vancouver
##chesse
NR
story
articulations
neveu
##ained
paradig
conservés
##iaire
##dière
kay
Loin
##acute
radiateurs
##SM
eg
AUX
fluides
globe
Virt
reviendra
divor
Huawei
cler
brute
paquets
Michelin
Productions
troub
Stanley
sanguine
Actrice
Rét
concessi
soumission
##tech
ornement
comptabil
##bro
Mondiale
Luci
Mâ
##ulateurs
homolog
##oussa
Dall
Recru
incur
siff
foire
##éle
puisqu’
##issan
longe
patch
bêtes
Jennifer
ki
culinaire
##auty
##swick
Loir
##aig
##tiges
##iscop
bienveillance
souten
MI
évasion
navette
rives
##ylan
Review
##amen
esthétiques
cérémon
Gordon
iner
##iaque
télétravail
reviens
##érosité
cuit
##icats
aquatique
Mang
##nat
crâne
ACC
édu
##sim
Terrain
##odé
assassiné
vastes
Fiat
##eria
Spécialiste
sacrifice
pleurer
produisant
maille
abords
hach
Lux
menthe
pharmaceutique
dérivé
Demand
Essonne
dessine
##xit
##venture
détachées
corromp
chanvre
neuvième
idi
fromages
algues
##añ
Bâtiment
registres
égyptien
##aru
coussin
cohab
T'
Ardèche
inflig
buil
Kou
Iron
environn
algérienne
poursuites
nau
Liverpool
##beau
Found
préférées
##illera
pertinents
décrocher
reposant
Fat
help
##vd
magiques
Loren
quiconque
##bellion
minceur
##LEC
évoquant
bancs
croisé
Ingrédients
Impossible
Eth
Cis
respirer
éclaire
flott
Panth
Option
autobi
##tiez
dépose
touchent
##oing
TOP
Pointe
blond
cyclisme
MET
##Ne
spécul
iron
biscuits
auras
prolongation
conduites
Engine
Créez
##card
choisissent
descriptions
freins
consoles
know
réplique
autoriser
Commence
substrat
##lots
agréé
Regardez
,"
concrète
téléphoniques
##oshi
traversant
pivot
Motor
acry
gouvernementales
créature
probleme
June
Reyn
greffe
téléphonie
affluent
approp
attribue
pertur
##sionnelle
psy
Shi
oeuf
acquiert
##lexe
Streaming
aquarium
ions
Dion
még
récepteurs
pacte
Snow
Ark
##lla
Numérique
Analytics
Mgr
Spirit
##orelles
crimin
Ted
Dublin
agissent
irréprochable
##lave
apprête
contemporaines
radar
cristaux
annuelles
panorama
extinction
journalisme
fore
évacuer
Nelson
##ACT
Europa
Porsche
acné
Broad
grammaire
HU
Parole
signifier
famil
durablement
judicieux
insécurité
##iront
ROU
##oner
Prépar
Gy
Particu
##ciennes
##ibus
Palestin
##rissage
##bihan
toxique
SERV
pneu
joign
exceptions
Ges
##dication
sérieuses
mensonge
inch
Stars
##resseurs
Calcul
contreb
Mart
Bam
kms
TÉLÉ
observées
Chelsea
minist
Tournoi
here
Ibrah
réclamation
##ruguay
télécommunications
##itra
##ariens
livrée
States
générosité
devenues
soif
éponyme
sr
divisée
brus
malad
Iris
Fillon
privilège
musculaires
Billy
##leton
Sara
apprentissages
joyeux
conduits
Studios
intégrées
vaches
##Pub
bénéficiaire
##achi
rééd
Tomb
mentionnés
escro
framb
criminels
découvrirez
mènent
ferons
accusation
confiée
cotisation
canard
contours
mien
jardinage
mixtes
##grade
ATT
configurations
##éant
typiques
rencontrées
Ng
fantaisie
Arles
Batman
démo
Britanniques
##cion
##ku
##ample
Chiff
aimant
financièrement
relié
Nas
Marianne
mythologie
inscrivant
shop
Isolation
Horaires
cash
manuscrits
témoigner
Local
##gnet
provoquant
CONT
facturation
danois
##jihad
vôtre
Espagnol
OF
ethnique
Touch
sentez
##AGES
Emer
condamnés
retraités
gravier
Acier
##itas
gravement
créatrice
Créé
##alons
tig
neurones
bém
flow
UP
Cog
marges
Mulhouse
souhaits
Raoul
roulette
##cing
tomes
intermin
##ingues
Sall
prenantes
croyez
##raphique
pié
__
selle
retenus
invas
reman
parcouru
continuant
cartons
deja
ignorer
contextes
accru
mignon
mannequin
Flandre
Adidas
##andy
cors
road
##OSS
suggé
Vichy
couvreur
Andrea
achève
colorés
Chlo
hébergements
curé
zen
speed
##pas
roc
existante
faisais
##eling
Suis
Meuse
remplit
##iiii
Câ
pép
##veux
significativement
incroyables
octroy
distribuer
présentations
Localité
porno
comprenait
##iba
Led
agrandir
psychique
comporter
Patricia
cardiovas
effray
Cancer
profitent
##érum
Clair
emballages
quoique
grilles
comprimés
##orra
##ibou
Rwanda
##zzle
##blog
minimiser
Nin
ressortiss
anonymes
démant
Miguel
réalisent
Fai
douter
refusent
MG
NA
apportera
##more
cov
violet
LCD
Fleurs
cic
rythmes
entamer
vaincre
recouvert
classer
communique
expérimental
balné
##vern
conservée
teintes
malheureux
avènement
##ppes
faces
##uries
défendu
visitez
Bug
##éga
Réalisateur
##XX
##ele
prêté
Mick
São
Child
blonde
inconnus
Guil
intelligents
##cular
délivrer
liquid
Pictures
océanique
##mia
handicapés
Qual
##ULT
##gis
remercions
omniprés
pénurie
nouvellement
abordables
Ém
##elli
Khan
Grim
##ioc
condensation
Somm
Hend
réalisant
##rens
vital
##master
internaute
Horiz
##atra
##ANC
véranda
levé
Matthe
COP
Coin
##roll
##hes
matérielle
##allenges
botanique
AJ
ferment
conservées
vant
appréciée
faisceau
prélèvements
Dave
Indien
##inshasa
WhatsApp
tribus
Alphonse
##var
health
##long
lâche
##aïwan
enterré
Abbaye
##hem
##bnb
##tait
Souv
##iza
modestes
miner
fantôme
ridicule
Mercure
Shar
autrichien
##roie
Buenos
Iz
##MENTS
##itain
aptitude
réglé
atypique
Columbia
malheur
collabore
secrétariat
Garden
pleines
##oeu
tuber
BER
balades
Linc
##icienne
Yv
abordé
renonce
Marx
Rois
parasites
domic
##ouverture
Stockholm
Ame
Schéma
brûle
soutiens
KO
Alexandra
##ocalisation
démocrates
Event
répète
profits
refroidir
expriment
manoir
##EP
RGP
anneaux
adressée
méchant
Matin
Précédent
DD
alignement
récré
##ITES
influencé
##sives
employée
Hex
frust
vase
sauvegarder
SCI
sic
Control
##orat
préhist
##ériorité
##zone
timide
##éran
CDD
##isait
Sco
batailles
maitrise
Jupiter
ond
##cra
récupéré
garantissons
signalisation
Saxe
##fast
coutume
##NI
foncier
fériés
Brunswick
exploitant
écossais
limités
verse
motion
figurer
détaillés
fiers
convoi
Réparation
Léo
##anç
périphérie
##br
Jen
prieur
décrits
élévation
Séries
##uary
##NES
Sandrine
Généralement
stimulation
Nove
LIV
Indre
Passi
PT
radicale
Supprimer
augmentant
auxiliaire
Conver
réclamer
intégrante
##obus
situent
forfaits
conceptions
originaires
##kerque
tiges
distincts
obligés
desquels
Mexico
##dites
way
habil
Paie
##ahu
adéquation
rétention
Etudes
##azar
onére
mécont
essayant
Symp
Bod
Previous
fermées
sécurisation
mast
amical
chasser
générateur
employer
##onais
##yss
hybrides
compas
jungle
dominé
##orcelaine
passionnant
plants
Enedis
Élève
survient
vrac
puissantes
marines
ful
commencez
##liens
Éch
Bâle
Phase
Bavière
pilier
dixième
développant
déclenche
##bourne
préjug
emprise
nuire
ouvrière
ances
métamorph
aideront
Alzheimer
accroissement
seigneurs
Éth
##owa
Puissance
incendies
##OUVE
fécond
relevés
avertissement
gouvernementale
subissent
Namur
ajoutés
demandée
expérimentale
auberge
##erty
péril
Ek
lamb
marchandise
jeû
Proph
Morris
network
exceptionnels
##ANE
complot
LU
garantissant
observateurs
prospects
Golfe
Michèle
rondes
##olestérol
varié
reconstruire
délivré
boxe
Difficile
ster
réalisme
Suivi
##riere
dénoncé
Caval
Mom
entourent
##ups
coulisses
Johannes
dem
détruite
morales
Beth
rénover
resser
composées
Tribune
sanguin
Automobile
##sse
Entraîneur
informés
Pêche
Rémy
architectural
Pén
verrons
dédic
étranges
archive
Héber
desservie
##ontologie
éprouve
PI
trouvaient
Récup
##anos
TGV
Aï
NON
pinceau
impérativement
##orium
Idées
##urale
region
alertes
silice
décryp
Piz
Meg
##cluse
préavis
apl
plaign
Communiqué
enseignante
abris
détecteur
merveilleuse
annoncent
ratif
CCI
noël
déboucher
logiques
Tarifs
torture
could
rats
German
##atiser
vaud
Finistère
Élisabeth
photographique
reprennent
Cult
Sidi
##aries
Shad
##ignac
extrémités
Schne
conservant
caractérisé
palmarès
##eler
délivrance
animateurs
Flex
dresser
ombres
Faute
##èze
Boe
obscur
Gallery
intrins
##tro
fraise
passif
BAC
##tellation
vertéb
ventilateur
terti
chèvre
atteignent
##wing
##Script
évoluant
Chantal
accél
fonctionnels
accueillis
ultérieurement
décideurs
Moteur
Crème
Beat
calif
Benoit
##aner
orientée
concrètement
révolutionnaires
Death
garantissent
alliage
rectangulaire
##umb
Energy
od
ago
##anta
##sionnel
dressing
inconvénient
close
INS
##ourd
Dau
cuite
disciples
##ether
Malte
Grandes
séjourn
boulangerie
Hugues
Maritimes
Voila
##ocrate
imposées
##arma
chanteurs
##arien
copain
##accio
BAS
Discographie
pict
##come
saoudite
dispersion
parallèles
copine
Aul
RGPD
coloration
arbitrage
##achette
spacieuse
Coul
habiller
orage
##reau
féministe
exigeant
pointes
##avas
##oïdes
disposons
Donner
ENTRE
Quad
tabou
satur
obses
vendues
encast
Diane
excitation
piment
JC
present
vitrerie
paup
##iguration
Pompe
venons
exiger
Family
temporelle
occupants
incert
##cz
Josh
##opathe
attacher
Oliver
April
##adium
décap
years
entretenu
subord
COU
escale
MR
Forex
niche
Jours
réaffir
##otyp
motos
Francesco
])
prières
sains
CHAR
statique
##havi
ric
inject
demanda
désinfect
NOUS
##venues
mathémati
Kinshasa
astrolog
»…
Edmond
##èbre
Dru
escad
bû
##arbonate
##ortex
cuisines
Réseaux
Intelligence
détaille
CET
Ghana
attitudes
aimerait
##mne
Sicile
##zation
plaid
Casa
Malo
glucose
manœuvre
gendarmes
alinéa
comprimé
Kil
oper
##raz
down
grasse
disparue
Compt
longuement
prédom
amandes
méridi
##oport
enra
##Con
##wth
antibiotiques
ennui
##osphère
interviews
ESS
calmer
antérieures
Delphine
aus
étudiée
engendrer
##eun
##ebe
##vić
acceptée
nécessiter
RTL
Race
apéri
achetés
époques
liquidation
précarité
cardio
poud
##vidence
Cohen
##osses
Russell
latérale
Wang
##ICA
horizontale
values
lond
Jessica
incluse
plasma
Kin
##lait
##lecom
##ocar
Années
réputée
initier
Ober
tutoriel
horizontal
transmises
spot
##phon
disputer
rappeur
contradiction
débloquer
préparations
Arrivée
agroaliment
supervision
ebook
measure
EXP
vienne
automatisation
REP
WiFi
locatif
entraide
##OLOG
Exerci
préparés
poursuivent
Accep
renouveau
##ân
XI
##celets
décerné
crèche
XII
kh
Risques
afro
menacé
girl
empois
Hai
##métique
fioul
provoquent
für
Past
##ervation
µm
##allois
déra
Server
sache
##aska
drones
chars
interactive
anomalies
Fabrication
charn
artificiel
Dies
Essent
Boulevard
jugée
averti
Boli
cloche
##lisés
##ansas
rigoureux
##ariser
Wilhel
emblée
##aldi
who
aquatiques
UL
passager
affectés
inspira
Reti
éponge
##laire
LGBT
invitée
rubriques
Pelle
sompt
Soi
kn
stockées
carav
VAL
écoule
lancent
icônes
##web
souhaitait
réagit
chaux
débits
Ern
Paramètres
McD
Daw
Citroën
character
criminel
accordent
dédiées
Bouygues
Universal
découvrent
##Me
##ingembre
édifices
narration
iT
souffrances
fermement
appoint
gagnants
mamm
##opolitique
déploie
Miche
border
Electric
infirmier
lap
url
tirés
présentons
successifs
infractions
Gary
bab
Régional
comptoir
Gira
Ian
ballons
Coeur
Royale
Suzanne
synonymes
Parker
Powiat
Model
##ocent
##aland
##ensis
pige
conduisent
##än
salope
médico
##ièmes
##oristique
##jean
Cooper
Couronne
CAC
typologie
##mag
)"
capturer
##lyne
Lincoln
Applications
finement
Boss
pad
Snap
antennes
##chin
Demi
ads
Commercial
##eto
##ators
HA
moniteur
##égovine
respectent
CENT
Volkswagen
prématur
couvertures
médiéval
collaborer
lag
pensant
excuses
torrent
supervis
Two
then
pseudonyme
Rachel
alu
croisement
exercé
scores
##ATS
féminines
##nthe
commerçant
Bouches
QUI
investigation
écurie
malaise
maxi
role
immatriculation
Poule
filtration
arrivera
décédée
Fid
Papier
what
conseillère
##viv
supprim
Morbihan
fesses
erron
moléculaire
appuyez
répandue
Wind
##ophobie
Sag
nap
épicerie
his
lier
Sebas
lanceur
moules
Feder
Maît
Toi
Campagne
##ancière
##ranium
croisée
assoup
affichent
Mathilde
semblant
cosm
éloigné
surnommé
##ciales
##lodie
Herzégovine
##diff
éducative
##rio
Animal
Happy
combattant
Omar
Florian
SON
##rod
##tieux
éliminé
pag
##assa
##aré
divid
Well
##bers
appliqués
localités
amuse
Xi
repousser
Picardie
feed
EF
Gasp
fraîches
dépens
GEN
Chré
##anque
tampon
Lév
Hambourg
multiplient
crib
Santiago
cabinets
CU
carrosserie
##WA
Mire
inquiéter
##érants
acceptent
émotionnelle
##oune
viandes
uté
républicaine
strate
bémol
dissu
Pennsy
Tran
forcée
duché
incub
Hero
##MR
visé
Couleurs
##ronic
typiquement
flammes
rattraper
spacieux
oser
réservez
révélations
Head
Barry
rejoignent
manquez
comprises
Ot
accré
LS
Hiver
investisseur
mammif
Final
##dal
wat
Extr
##chal
paraissent
Nanterre
favorisent
récolter
adaptateur
##clair
Tête
DP
convictions
##fl
fraises
##carb
Cologne
##acha
Énergie
bip
##lope
ori
##orels
##tik
infect
Plein
Kodi
défici
tendresse
##lules
##staller
profitant
Proc
Seuil
érosion
##oenix
habitués
métall
Vraiment
##lements
pitt
##lows
Russes
tambour
émerger
Sauve
Bré
souffert
Ateliers
HR
##ypre
inconscient
After
NASA
files
corrosion
##wart
écosystèmes
restitution
Range
Anjou
lyon
cabane
golfe
marion
timbre
rater
gameplay
sémantique
pars
touchée
##GS
Bai
volé
Dah
audac
iné
Mitch
##otée
ancestra
filets
djihad
trot
rail
sos
##châ
##tto
fracture
intervenons
convenir
brune
Mémoires
nôtre
##alt
map
vignoble
Travel
génocide
obtiennent
##covery
street
fondements
plafonds
GD
##Plus
vider
##mour
venues
pistolet
##bell
cholestérol
Rejoignez
mau
commodités
normales
Clara
##aing
##etto
imprime
effraction
##UBL
NY
Capitaine
Nour
##ono
Nd
réunies
tardive
dentaires
rude
##assés
Forest
préface
massifs
Rosa
equipe
##wh
performante
Lumières
survivants
inférieures
##ènera
##onso
Aven
antis
##aristes
##okia
##KS
Frib
##oker
radios
Swiss
##usées
couler
résistante
égout
mA
souhaitée
##stand
conduisant
oscill
poètes
hélicoptère
##athe
prophète
##IEU
serré
prolongé
Capt
ravit
Lauréat
Amar
Magnifique
demandons
stables
Kap
stagiaire
échoué
Ful
résilience
manifes
engin
stigm
plâtre
prononciation
confin
##oust
purif
Soutien
Warner
fo
eh
daté
Chroniques
Consi
indigènes
cast
garnis
loups
Fashion
muet
brin
##kk
Gn
séparées
Véritable
Ves
électorales
result
##iments
plane
Shaw
Spider
ba
##vic
emblématiques
Jin
"),
excéd
Yo
##inées
peser
présentera
Swe
Langues
localisé
juniors
sis
Bent
##BIL
blogue
##ÈRE
Journées
élimine
adorable
suspendre
contrer
Philadelphie
référer
Bleus
clips
Avantages
recent
-)
expérimenter
Adaptation
douzaine
agr
greff
supplé
##chot
Sociale
DOM
latéral
constitués
déchet
conviviale
##alez
explore
supprime
cerv
inflammatoires
mers
décisif
Pf
anticorps
Orth
vinyle
promener
Copenh
déposés
perle
Airbus
hormis
Tibet
tendent
laïcité
magnésium
basique
Cahiers
##amas
##ania
vulnérabilité
retent
TI
##champ
Church
pontif
élites
Recevez
Viagra
price
rappellent
##oder
SAV
optiques
chronologique
BTP
Cann
Étymologie
##ondo
enlevé
Label
Représent
manquait
Prénom
dérog
##onomie
##ompte
mem
vocale
conçoit
recouvrement
##zona
rendements
Registre
Parad
##orées
##peurs
apercevoir
##ledge
mich
pvc
Équipement
##motion
occupés
récidi
culmin
vêt
gardiens
joueuse
Jacqueline
composite
menuiserie
Terra
parlez
##riculum
##riels
contentieux
authentiques
enrichissement
minutie
spirale
Km
##ryth
soirs
Illinois
retrouverez
triomphe
vallées
attributs
centrée
jumeaux
##ARE
##lich
pourrions
lycéens
tourb
compacte
subtil
ronge
Tac
##estern
temples
Row
##lenchon
émergent
##œuds
bilat
Problème
Aper
##eg
##aven
##ship
génétiques
morphologie
##ATA
prononce
Maghreb
gaul
législatif
possédait
talon
évier
mL
##évité
##gnon
Papa
inventer
##arche
raid
modérée
certificats
bitcoin
Kiev
Engie
délit
##isserie
##arine
grenier
Kennedy
##cit
criminelle
éternelle
inattendu
chirurgicale
peri
demandait
Profession
festiv
Mélange
Carole
retient
Isaac
Sche
win
Pru
polyn
Oran
Cookie
Heart
##ials
Ice
JU
rectification
##lins
expulsion
CHE
##onage
mesurée
FER
Kr
tt
##éroïde
##cot
NB
Derniers
##PT
magnitude
##licy
désagréable
répét
tache
acquises
Fantasy
affiner
Modèles
Personnes
##oussins
imperméable
cess
clavi
Voltaire
kilomètre
culpabilité
apprenants
Christi
slogan
AUT
MV
sonne
Coiff
thaï
granul
…………
##vir
ARTIC
récapit
construc
achar
interfaces
Gö
##ANTS
parame
rétros
fabriquée
##sky
inscrivent
serment
Cell
##bat
Documents
espagnols
–,
disputé
Who
##eti
budgétaires
unit
battus
Léger
submer
éphémère
Joli
Damas
tueur
##itales
Voie
affiliation
colons
aperçoit
arnaque
##ALES
VIS
intuition
Thom
##enberg
habitats
frame
Chaîne
sép
Bient
méditerranéen
Métiers
##oncée
charmante
vint
versé
rp
marx
temporaires
Vista
patrie
##esh
présentait
Delta
faiblesses
##riture
Body
accueillent
indirectement
##mite
narrateur
vendent
bloquée
##pendent
logiquement
IB
Giuse
custom
sénateurs
Lip
Perf
Kaw
comédiens
diété
##itudes
Messi
amande
concrets
Belge
Catal
##MATION
##allah
survé
##ohn
Avenir
Trail
Tun
recouvre
Sri
##VEN
réconfort
serviette
fixées
brevets
habiter
alimenté
##châtel
Enquête
monarchie
foudre
Flu
##put
##adio
Carter
Roux
résolutions
##odor
Bassin
allusion
Plas
éques
Arabes
Jas
crédibilité
remontée
haies
arrêtée
RCS
##lr
Mountain
Vib
temper
divise
mural
monoc
ari
possédez
als
débouchage
rires
munitions
débarque
roulement
perçue
confrères
incul
continents
QC
immunité
ancrage
rip
##illants
##rary
##champs
bouclier
indemnités
limitant
digestion
piég
Alf
##say
ouvertement
##chis
cristall
soignants
demandeur
Antilles
Fernando
Polyn
arte
floraison
##ython
tirant
buteur
stricte
##ppé
résolument
Monts
adéquat
préférer
Universe
remboursé
vivait
élémentaires
Plateau
quer
Imper
cosmétique
mystérieuse
Books
inexp
préliminaire
regrouper
atténuer
##jack
bouillon
marquage
##olithique
tunisien
pires
testés
Vintage
catastrophes
Enter
Portes
Lunettes
sauna
récupère
apprennent
chaussettes
Palace
Leroy
destinataire
Chasse
##jette
effond
radicaux
coudre
souche
touchées
rétablissement
TU
creer
décida
signatures
cuillères
gagnent
bougie
##enny
war
both
Summer
Verne
##hme
vocal
##lers
rassure
Monique
Yannick
##mirats
calculée
remplacés
##akespe
raisonnables
valoris
')
lobby
NS
UEFA
vengeance
gigantesque
NET
##aville
persécu
cup
Hunt
mid
couvrent
argentin
justesse
Wifi
zé
##cum
Roque
Sahara
supermarché
PHOT
palier
##ATE
##CON
inquiétudes
##TÉ
prier
potentielle
##rel
amovible
##érapies
jouait
associant
Européen
dorénavant
animales
Superbe
key
PROD
Bourbon
démolition
poignées
mamans
Veste
##lice
appartenait
REG
##CHARGER
fourchette
diffère
spam
clique
siens
déclenchement
opposés
attentivement
Métal
dépla
tatouage
Nissan
##ronomie
##rign
Vaud
##lik
creuser
Princesse
bambou
Pasteur
Drôme
Field
##otto
Soirée
trilogie
Pouvez
guilde
assemblées
enquêteurs
séminaires
##queuse
associatif
disparaissent
##inosa
navale
Salomon
considérations
ji
Assur
bêta
ATP
expiration
occidentales
conve
provincial
##usa
effectuent
nœuds
analysé
Stop
basilique
collision
réagi
Compétition
idéologique
rapporteur
audiovisuel
##uta
small
rug
Vive
improb
pénis
toits
##cades
maf
réconciliation
installent
Militaire
Séville
failli
critiqué
##oriste
Ping
##inent
##atuor
##UITE
Focus
tendu
mensuelle
##SEE
Neuve
maternel
##andra
glaces
Say
Recherches
confirmés
##DO
attribués
discuté
Comics
infirmiers
Ocean
vitalité
pluridis
protections
example
##eda
électromagn
Sais
méritent
pensi
Tend
rompre
TIC
bonbons
##OURS
##sir
Rénovation
Gile
Affich
Karim
##terres
Brexit
city
Scre
solidité
##mani
compartiment
crue
indiquées
Bris
VOTRE
législative
Leb
Vitesse
##IGNE
pratiquant
Événements
pèlerinage
ABS
Dubaï
dépassent
Cambodge
TECH
##def
redire
##issaient
Fast
##odique
Bisous
néerlandaise
députée
économiste
Frid
lant
violonce
classements
dépassant
pureté
inévitable
passa
biod
suffira
MAS
habitué
##ineuses
Roub
##ación
##alets
gad
danses
raconté
spin
Auré
incite
Suc
recré
Tomm
Author
éternel
Arti
Masque
##pentier
pittores
conséqu
punk
précède
gn
Rossi
émettre
recharger
notifications
##cision
parenth
bê
atomes
abra
hypertension
would
##ela
correspondants
ministères
##zé
Airlines
référentiel
##erth
##euil
##difier
Poitou
-.
development
automobil
retourné
Record
Berry
##brid
homé
##ANTE
ampoules
venaient
empêchent
rabais
truff
focus
##éna
terminale
Whit
strong
##ropol
##nal
avisVoir
prioritaires
différenci
kWh
##onçant
anal
Arménie
Leip
Territoire
admiration
engouement
Baskets
talons
puissions
bœuf
##teo
Plais
Léonard
Hob
##uda
Hydro
Entrez
Astéroïde
Auber
Véhic
poignet
cubes
BFM
Emmanuelle
satisfaisante
Fati
syndicale
Hat
iranien
fug
mim
poubelle
appropriés
Moïse
incom
cérémonies
Surf
Edge
quantique
enlève
##rama
Salvador
Cote
Philips
aquare
apparue
Look
Fribourg
##phées
Azerbaïdjan
formelle
éligibles
quint
électrons
abonnements
##ecture
managers
aille
interprétations
Joël
##ever
suggèrent
grimper
##onnaie
porcelaine
suggéré
Rah
ergonomique
Jouer
pharmacien
socie
Enregistrer
##esa
rocher
aboutit
racheter
##racle
excentricité
Giuseppe
rée
exploité
##roïdes
##rade
longévité
pensions
Pablo
CSS
Pac
lacun
sympas
Gob
##kok
continuera
séjourner
##untu
Cycle
promoteur
Meh
##quise
Assurer
formulaires
##amar
passionnée
prolifération
abordés
sélectionnées
gourmands
BY
tante
inconfort
gradi
Seni
analystes
##ELLES
Extrême
##abilisation
délicieuse
filiales
bombes
prospérité
défaillance
##vettes
boitier
dépou
lauréat
cigarettes
Masters
##ouchage
##BER
##ressif
Valls
rattaché
qq
Him
cyclistes
institutionnels
armement
##assium
testament
sid
Dunkerque
Etant
estamp
cheville
Fermer
Finale
##KI
envoyez
Carré
exploser
microb
injec
verbal
solen
accomm
nazis
##roix
Casse
vitic
messieurs
bouff
uploads
attachés
Bene
##erence
Michigan
reposent
batteur
gingembre
avortement
##iven
asym
induction
found
##isante
accède
nordique
sommaire
délicatement
##rantes
Roberto
rumeur
ralentir
Visa
cambriol
acquéreur
##ographes
##oriques
##régation
##dha
représentées
institutionnel
pharmac
CAD
##gare
##ochim
Ouvrir
attendons
entrepôt
sauc
ss
tumeur
redev
aisé
dessiné
coude
scrup
nuls
monopole
Mitter
CHR
##œud
##quantes
canadiennes
Anciens
Prusse
Haz
agrég
Verre
découpage
Ibn
Lions
tph
Hul
Fernand
regrett
substitution
##erons
prédécesseur
##uleuse
pulvér
Kor
##zes
last
thy
##head
restructuration
regretter
##mur
Hun
conscients
Apol
Géral
présidé
interlocuteurs
##quance
##cil
Bosch
Sard
brancher
Meilleures
Molière
chocol
Projets
Cow
Médecin
##look
brésilienne
wik
Quick
##ción
courb
laissée
apparitions
Albums
extraordinaires
conditionnement
avois
conjointe
##uyez
tibét
éclairé
Bientôt
york
rails
Troyes
coûter
##GB
Nég
##arz
assiettes
modéré
literie
identifie
##olent
conjon
green
résidant
profonds
FIL
Elite
déduire
Glas
isot
ergonomie
freinage
##odon
Grasse
Meuble
Chirac
forestier
##zed
oriental
Romans
##anine
garantis
Michelle
ludiques
parentale
sion
réactif
redist
##CP
républicains
ESP
##Tech
interval
Gw
entendent
interrogé
Manh
banane
provenç
suffisent
lyonnais
débris
##rification
Development
##GU
FMI
chômeurs
chevet
patiente
##ucci
beige
##atory
endommager
##ocratique
##riam
Jaune
résistances
term
Classique
Récompenses
Kl
survenir
##loo
absorber
velours
Aer
##instein
choisies
bordeaux
##uyer
rituels
##ondeuse
antécéd
Myst
Rémi
VS
##quoise
injustice
nuisibles
agitation
stud
Common
doubler
pent
Arizona
meeting
Gray
courtiers
buzz
Producteur
Agricole
##asing
Heure
massivement
Rassemblement
privilégiée
mêle
vainqueurs
considérables
arrosage
achevée
##ométrique
Rim
oxydation
initiales
palestinien
BON
Robinson
passerelle
latérales
Bracelet
##liga
minimal
colonial
stylo
Scientif
##oureusement
exigent
irak
flacon
endommagé
##ouville
encombre
ros
rival
##IERS
régie
habituels
congolais
Pey
réélu
tarder
épargn
ancienneté
Ecrit
Cryp
##orateur
##oooo
progresse
affrontent
electrique
french
Ille
déclarée
BU
##ior
démocratiques
##ctus
fluvi
commencement
cuisses
Angoul
Echos
Nau
renaissance
Eiff
Yang
didactique
##oper
Délé
diagnostics
Arsenal
##mental
TPE
Biden
MAL
pièges
Tché
##news
Chir
('
scooter
##uzzi
Mélenchon
gas
graphisme
sévères
##CHER
marée
Chou
Hold
##enaires
Rive
régular
assujet
continuellement
dialog
##landes
vasculaire
Objectifs
Software
cue
fabuleux
granulés
participatif
pep
reliés
invitent
##ressive
##aissement
Civil
cint
##mange
lauréats
adorer
Blood
exclure
Chaise
Cdiscount
kayak
appropriées
Étoile
pics
thriller
Edgar
Crédits
visualisation
shirts
inflammatoire
stands
##allage
##YE
sop
alpha
Meetic
og
There
cartouche
océans
Apprenez
Adop
Phoenix
EA
appropriation
praticiens
cafe
##onté
plantations
##uxell
fondatrice
##Ou
laissés
antip
##hélie
rébellion
Aisne
##icide
Devenir
Das
textiles
Amélie
multil
Pleins
fonctionnant
conquis
diversification
##afi
fast
sien
emprunteur
repart
foul
##grédient
étonnante
##HD
routeur
Stein
VIDE
rappelons
répondit
Leipzig
simplifiée
pallier
arrivait
malé
##BR
##ов
auriez
politiquement
diplomatiques
arrivées
##veyron
Flow
CAL
##pres
PCF
Gom
familier
##érables
Déco
consolidation
atterrissage
spiritualité
calibre
figurines
moine
néc
accusés
quil
inscrites
##fais
##TRA
corporel
share
##fle
attractivité
maur
déser
##ENTE
étiez
##uscules
cube
desserts
mobilisés
Sierra
##parable
amenés
##ISATION
enflam
/-
##omatique
piloter
##idés
autorisations
Sacs
##ocalypse
pentes
Gratuite
Colorado
purée
Trophée
Sai
alphabet
plutot
cheminement
désordre
Bard
Principe
Copenhague
Abou
##stadt
These
loger
bâtis
Chance
Québéc
chrome
dessinées
Bateau
RSE
basant
objective
acquit
négliger
soulagement
##isants
Mater
démons
diplomate
franchi
blindage
pénétration
vérifie
Bundes
poupée
légalement
Bros
finalités
épiscop
##mbo
Alban
Adj
généralistes
répandu
Campus
GRAND
périhélie
abandonnée
sect
ip
##itablement
hypoc
##tino
renouvelé
##ired
hétérogènes
neuves
déesse
##isements
mystique
gynéc
libère
pacifique
Dy
jambon
usb
créez
caractériser
Enregistre
XVIII
syrien
aléas
quittent
échel
##hab
Pseud
##kea
##choir
Baker
absurde
permanents
Wu
déguis
CHAM
BS
##HT
Deep
Dow
Fémin
##isph
festivités
Japan
space
mettait
peurs
##jord
perdues
##clairage
exhib
admet
souples
présidentiel
##Point
reportages
##meaux
neutralité
##orise
cah
mature
##ticienne
magistrats
That
affrontements
lamin
accomplissement
maximiser
ignorance
Special
téléviseur
##aigner
dorée
réglementations
haricots
Baron
##pice
##rium
offrira
##enstein
Amand
##rô
Gru
différencier
##ouée
nauf
##cutive
Griff
Participation
rencontrez
terreur
TÉLÉCHARGER
##ophysique
Jai
navigateurs
Wilhelm
distil
directes
chag
ampoule
Installer
éteindre
cry
Panama
##çaient
colorées
classif
distinguent
Quoti
##arit
Légende
Prêt
virtuels
décisive
renommé
Emile
séisme
item
cognitive
##ophon
Wii
IND
étudiées
Condé
interactif
Diagnostic
empêché
Confident
décoratifs
##ovision
effectuant
cyn
Largeur
TM
##akespeare
Unique
Indian
scre
rhét
!»
##lvanie
tropicale
dentiste
tweet
##oriage
introduite
gastro
##TIE
sénégalais
conquérir
nus
##vas
climati
VIP
émetteur
portage
##itables
Angela
exprimée
sexes
vulnérable
##émont
atmosphérique
danseurs
hydratation
Nog
jugés
ruine
Quimper
moyennant
épin
Arrêt
Empereur
entamé
Cruz
Itinéra
circonstance
##RET
##aia
##ibilités
##Par
Rez
expatri
diamants
attraper
##VEL
vigner
moutons
funéraire
Morin
partez
items
soulignant
Pink
perturbations
Championship
##ourez
##ièrent
froides
LIRE
Aurélie
concrétiser
Meyer
Desc
réunissant
stockés
gib
Lisez
##yg
visc
Sauveur
raisins
Solidarité
Balance
suédoise
variée
remorque
oss
bruy
##oués
jonction
zomb
Tin
Vilaine
cède
Dest
tirée
communion
prononcée
prévient
##color
##ouna
manifestement
proper
!...
radicalement
agira
bières
Houston
##bant
##sec
traumatis
Grant
réam
ordonne
poing
UTC
convenu
##lee
general
routiers
##leroi
##jeu
bannière
exotiques
oxyde
Nul
##partment
Chypre
vécue
Cool
Block
##lied
##erton
Gers
intimes
mesuré
polluants
##coins
solub
Og
##duits
##stall
##cap
Dir
##FS
display
atomique
Atlanta
récompensé
room
Fanny
Foundation
élagage
érection
comics
inertie
##VI
tricot
suivies
thor
Seg
##idel
polaire
logos
##zin
savour
Châte
ébl
##liez
interagir
redoutable
maths
##iables
again
télescope
stopper
autorisées
virement
capter
percer
##ZE
conventionnelle
tentant
préjugés
consolider
terminant
inspirés
antivirus
Aveyron
capsules
bénévole
##idents
Effet
state
##bau
Protoc
reins
craquer
Freud
Cassini
diffèrent
fice
##VM
amples
##mpor
couteaux
affrontement
jadis
defin
transmise
cohérente
##Mich
##atem
nostalgie
##yday
Lig
inédits
GES
instabilité
croyait
##tivity
croître
acrylique
Tav
interrogation
lavabo
recommencer
##orting
Allier
recour
équité
barrages
Bayonne
formalités
##BLE
pâle
##mary
intéressée
##ission
Pennsylvanie
##édition
##assement
centré
Karine
##cott
quot
encadré
inaccessi
lointain
dénicher
hésité
empathie
three
méda
acquisitions
tog
Plateforme
##itait
##dorf
enduit
incarner
Matthew
Cycl
##JET
évoquent
Supérieur
##ogan
##jonc
Constantinople
##tiendrez
##tisé
signés
just
palé
décla
écliptique
accept
professe
hydrocarb
demandées
désaccord
Occidentale
régulateur
english
berceau
illégal
##vine
November
rebelle
Goth
Thème
antig
sélectionnée
JS
],[
hébreu
exploite
##luer
déposées
##èdre
pannes
##oki
Illustration
douane
fassent
##iatre
##aïsme
opposent
aisée
Citation
Harvard
halluc
##Ph
Lawrence
satisfaite
Calvados
immin
photoc
rattachée
contrast
Arbre
Vanessa
adhérer
Sélectionner
trahison
coefficients
baissé
contenues
formuler
Chien
adverse
##pport
calcule
empreintes
Episode
Notamment
déplacé
amant
périodique
bascule
Ohio
Mande
Aragon
Républicains
firent
##erbro
craintes
atteignant
Etab
Rein
(?
tru
Oz
rapporter
parallèlement
cavité
Shakespeare
Palestiniens
Burg
fâ
concessions
bir
ft
lancés
Edu
Titan
dysfonctionnement
##nium
amicale
bcp
contourner
##orez
Cheveux
diffusés
gourmande
##clen
rallye
zi
Dance
##agène
Mélanie
Clinton
mue
pirate
sincèrement
##ANDE
gastronomique
allie
discount
Ident
Léopold
qualitative
posés
italiennes
téléchargé
incroyablement
expédié
'',
jés
##ctrices
spécialisation
now
Country
triomph
claque
répercussions
Combat
##ih
féminins
nant
allées
ukrainien
##ulez
comptez
##appé
revivre
Scot
##pation
##idences
Cust
Symb
##atment
dématéri
search
praticien
##ÉN
Jardins
Ciné
VIE
Massage
TOUS
JavaScript
étin
Aman
forestière
Most
acét
##jus
##omption
veau
endettement
##agnac
##chw
envisagée
Angoulême
prospection
énoncé
Distance
insuline
anticipation
Schneider
revendique
Ney
glor
##estre
##ined
reconnaissant
élire
commenté
minorités
##erd
Travailler
Dece
utilisable
##ailable
Ibrahim
protestant
altération
blu
Cors
##ionnés
aout
persiste
##uir
lif
jouée
aspirations
examiné
marqueurs
sandwich
HY
Nab
Indic
comparez
habitable
##force
Ordin
Abonnez
consider
NP
civilisations
iTunes
##rial
roll
MOD
Isle
Féd
locu
##ety
intrus
aptitudes
soulève
incertitudes
plaines
tourment
TD
##illette
caramel
Technicien
alt
:#
Gaut
espionnage
##endez
##ductions
déclarent
obscurité
##iani
baignade
conteste
marre
bov
formateurs
servait
##itale
##plan
demeurant
…..
illégale
she
éru
##olaise
continentale
insisté
##rill
pesant
Directrice
causée
jouera
Amy
voûte
##coh
inondation
##timi
Mind
##mez
##émen
bg
bati
sauront
prie
changes
Manga
Beck
préparent
##étude
respectives
png
Kings
##jar
consommé
Wit
Massach
blague
intègrent
floc
Pend
##assée
##ishi
Macéd
Officiel
Wikipedia
Credit
Ultim
Telecharger
abattu
rejette
##OD
australienne
##illots
accompagnant
éducatifs
Pearl
importations
traducteur
Armor
subdi
Arb
Réponses
accompagnées
découper
récipient
TL
éloigne
Trembl
##chid
Breton
##dimen
Alberto
Short
ramène
Planet
splendide
Consommation
##seillais
Chloé
Capitale
Sandra
##arritz
stic
Béz
compétente
permit
crép
Marshall
peloton
##ïté
Infin
##ely
parue
exercent
Championne
infirmières
fatigué
##ériens
justification
retrace
déd
Ost
##inae
mienne
dimensionne
Téléchargement
##gir
Réserve
ere
travaillait
LI
Agen
affichés
##burgh
actual
##uanie
Avocat
fui
Courrier
Hunter
Massif
FP
Position
##matiques
Éditeur
reconnaissent
promul
Tesla
Aube
syndicales
##onctions
models
placent
Transition
##raphes
cale
##hop
##tini
confirment
cérébrale
courtois
entraînements
*.
vét
obtiendrez
pains
déplor
neg
concerner
renouvelle
découverts
décomposition
escap
Otto
dépassement
##ribe
réguler
Pain
##titions
rs
buis
OV
Sommet
##tch
##hof
réacteur
Nil
ferais
communic
cét
##ersonne
##iendaire
islamistes
Acte
Muse
Reply
endoc
Mitterrand
##wel
talentueux
Klein
hebdomadaires
##agny
déshydra
survécu
salué
Journaliste
Telecom
Matériau
##atum
Wy
verrouillage
##ellow
loué
##arrh
Aud
corse
orientales
ineffic
Vannes
attray
apr
Tint
GHz
continuez
profile
Nina
##tré
Patronyme
SSD
résonance
modifiés
Donnez
surplus
rentré
##otherm
instantanée
Rall
appréciés
project
soeurs
multifonction
Péd
##INES
Pours
Dernières
Mozart
##REM
chamb
Ars
achemin
Lob
mammifères
recevant
##cissement
fumées
##ст
Brie
modifiant
Girard
Ide
Tissu
##allo
cliché
coréenne
Randonnée
Thunder
réalisateurs
bagage
indétermin
affectation
comédienne
ring
##Ex
vitrages
Wonder
Diffusion
commente
ingrédient
Pand
Indépend
Oul
immigrés
réouverture
cibler
Bren
research
Kindle
Commencez
sucres
Sed
Pilote
Poche
échappement
imprimée
entreprend
Testament
parvenu
Sund
viendront
fragilité
concurrentiel
compens
##vera
douan
immenses
##fit
Tas
##encl
##tah
participations
Grecs
implanté
mythes
##gart
instaurer
apportée
potassium
déçue
##fu
meublé
Tahiti
year
valu
##tensiles
salé
allè
mord
progressé
affin
broc
Winter
accélère
##cars
##afa
##atz
insolite
durent
specific
Rica
##FT
reconversion
Hels
fluores
##rouiller
désespoir
cérébral
disparus
##lavie
milles
périple
latex
##mbab
##uru
clauses
##dson
épanouissement
réorganisation
Sli
aînés
demie
##icium
Dôme
Gig
tiroirs
chargées
étoil
Lope
tentation
entourant
Filtre
Moreau
saluer
gru
ran
finira
##faction
supers
##utention
soucier
Trente
diagramme
échappé
Lach
##éval
Hassan
climats
Touss
mentionnées
circule
postuler
immort
hormone
Sale
crèmes
soyons
Sarthe
circonscriptions
##rault
basculer
twe
aurions
##parez
gonflement
identifiées
##URES
membran
##oso
draps
mystères
##ppi
##ticules
##ILE
compétitif
séduction
McK
valises
ns
arron
salue
partagées
estimés
Tamp
solv
contain
unitaire
Ig
entraînent
emprisonnement
confiant
facultés
##nettes
mentionnée
pai
adjac
tamis
Agré
attachée
abstrait
Acteurs
calend
Silva
Aperçu
brasserie
Rup
égoï
##chio
crédible
saf
prépond
grès
##dar
maitre
Kai
fly
ébulli
Terrasse
protè
##FL
privilèges
prédi
avan
##rassé
TRI
EAN
reproduit
poumons
stéril
bourgeoisie
courageux
##ISSE
nigéri
bacs
##dification
MHz
dominic
##erto
Collier
recueilli
pourvu
Rivières
metteur
##onnexion
##lisées
##aureau
Olympiques
laitiers
##pace
sanguins
##leb
chauffée
cort
Dubois
promoteurs
écouteurs
échauff
##kine
./
vecteurs
##ticule
incluses
congélateur
desquelles
écraser
claviers
esclave
Poker
Entrepre
fabriquées
maquette
ralentissement
Filles
élargissement
Stanis
réfère
Pascale
##lule
continuation
cannelle
BIO
confiture
Ana
capsule
Bridge
commémor
Montreuil
ballet
casques
prescriptions
##akov
éliminatoires
##usetts
coutumes
##autes
##emon
patronyme
peste
stabilisation
Recommand
Chargé
prô
##agonale
pérennité
##hyd
##ondance
##nan
OB
prussi
Vinci
Populaire
appliquant
##ady
##dos
nautiques
cerner
Chang
Adapt
Emilie
remèdes
January
échantill
Dessin
précédant
##rope
)…
Qualif
##oies
traversent
Zel
kinés
écouté
civique
##lah
Charleroi
ébullition
##cks
Scand
##YL
paradoxe
marquées
visions
excursion
##érateurs
##itri
branchement
revêtements
diviser
Sculp
##tillon
##tiendra
##phtal
strictes
##ging
##ACK
Chante
Mauritanie
##tigny
projeter
##mètres
##écaire
réflexe
##stock
apaiser
Nex
Faits
relati
opérationnels
##his
##utées
Classements
baskets
condamne
massages
##acteurs
mouche
renfort
Security
Mec
dB
rochers
sente
Liz
vulg
##ZZ
seigneurie
AND
imparti
Indes
nerfs
romains
##artz
##mentaires
##ENTI
ALL
Montb
Noirs
##ELS
quais
LLC
itin
nullement
rente
##GL
##kir
charité
historiquement
##telles
##ichi
tombés
##éennes
fantasy
épuisement
fondu
savoureux
tombes
shampoing
voeux
démarré
retards
##uke
##ppa
représentait
écarter
##PAD
auditeurs
impliquées
thèses
Murray
souscrit
PHP
mandataire
toxic
réédition
?.
reçut
Myth
natal
Vingt
dar
OH
lessive
##érage
resteront
Générales
serve
verdure
Cave
Poul
échoue
trousse
éditoriale
##rail
clergé
##abre
Tik
détruis
Arena
Fuk
agroalimentaire
##ased
Boeing
Garage
repe
##ef
invari
Passage
dî
modul
linéaires
RPG
fourrure
##ulence
douloureuse
Beaumont
cartouches
Béatrice
##alg
Cort
envol
savant
déteste
pipe
adhésif
adaptations
conformer
Nol
ruraux
héritiers
Abu
avéré
Janeiro
Vand
Whe
Léa
##aking
compteurs
caractérisation
militante
Ralph
déménager
fonctionné
pléb
##AK
repéré
penses
Thèmes
expérimentations
insurrection
CRM
vibration
styl
faisabilité
##acia
##borg
Plaque
Yougos
parab
allergies
##actes
kur
approximativement
anthropologie
élevait
Cherche
chal
frustration
bétail
légitimes
rejeter
sentait
cofond
excursions
Nokia
Quin
numér
Chin
##rika
Voice
inédites
apprécient
Sémin
##ronne
bb
Polynésie
norvégien
Globe
antiques
Dallas
mensonges
##ionnaire
flan
vérifiez
cid
célébrités
Vid
Bourges
Quer
Enfance
rénovée
pharmaceutiques
Prévention
Verdun
##Mo
mechan
socialisme
##XT
textures
Notice
impérial
programmée
soucieux
camouf
western
météorologique
contag
Réforme
##tint
conjoncture
##dt
Walker
October
effects
Massachusetts
zu
Mits
Clin
Évidemment
##erbrooke
dramatur
espion
Adh
spatiales
Soy
vulgar
envisageable
travaillez
Systems
Finaliste
Friday
##mod
culinaires
##aspora
regroupés
pourrai
remportant
##leg
trouvons
compositeurs
reconnait
mourut
##osis
traumatisme
Nova
Gaill
justifié
Créée
tumeurs
videos
anéant
démoli
planétaire
fruct
Porter
lat
Slovaquie
Foire
MES
##VPN
adjointe
##ardon
psychanalyse
##tid
feat
doublure
renvoi
Expositions
critiquer
oriente
stupé
finaliste
##uka
théorème
##gang
##éa
##oureur
baguette
##chem
rends
Suites
Billet
Arnold
##Ac
Flore
Marais
Dupont
princes
promenades
##OST
##othy
##plant
MJ
syrienne
##ûts
revu
Mesure
Chartres
cocktails
diffusées
commissariat
alliances
existé
leviers
palme
torp
##édés
svp
épidémi
autobus
loge
coéquipiers
##rina
sélectionneur
entrevue
ISS
Luke
distribués
reform
optimiste
abondante
intox
Officier
Cialis
compassion
##emy
Riche
Développer
Ave
techniquement
EURO
GC
[...]
